{
  "version": "1.0",
  "truncation": null,
  "padding": null,
  "added_tokens": [
    {
      "id": 0,
      "content": "<pad>",
      "single_word": false,
      "lstrip": false,
      "rstrip": false,
      "normalized": false,
      "special": true
    },
    {
      "id": 1,
      "content": "<unk>",
      "single_word": false,
      "lstrip": false,
      "rstrip": false,
      "normalized": false,
      "special": true
    },
    {
      "id": 2,
      "content": "<s>",
      "single_word": false,
      "lstrip": false,
      "rstrip": false,
      "normalized": false,
      "special": true
    },
    {
      "id": 3,
      "content": "</s>",
      "single_word": false,
      "lstrip": false,
      "rstrip": false,
      "normalized": false,
      "special": true
    }
  ],
  "normalizer": {
    "type": "Precompiled",
    "precompiled_charsmap": ""
  },
  "pre_tokenizer": null,
  "post_processor": null,
  "decoder": {
    "type": "Metaspace",
    "replacement": "▁",
    "add_prefix_space": true
  },
  "model": {
    "type": "Unigram",
    "unk_id": 1,
    "vocab": [
      [
        "<pad>",
        0.0
      ],
      [
        "<unk>",
        0.0
      ],
      [
        "<s>",
        0.0
      ],
      [
        "</s>",
        0.0
      ],
      [
        "<mask>",
        0.0
      ],
      [
        "<0x00>",
        0.0
      ],
      [
        "<0x01>",
        0.0
      ],
      [
        "<0x02>",
        0.0
      ],
      [
        "<0x03>",
        0.0
      ],
      [
        "<0x04>",
        0.0
      ],
      [
        "<0x05>",
        0.0
      ],
      [
        "<0x06>",
        0.0
      ],
      [
        "<0x07>",
        0.0
      ],
      [
        "<0x08>",
        0.0
      ],
      [
        "<0x09>",
        0.0
      ],
      [
        "<0x0A>",
        0.0
      ],
      [
        "<0x0B>",
        0.0
      ],
      [
        "<0x0C>",
        0.0
      ],
      [
        "<0x0D>",
        0.0
      ],
      [
        "<0x0E>",
        0.0
      ],
      [
        "<0x0F>",
        0.0
      ],
      [
        "<0x10>",
        0.0
      ],
      [
        "<0x11>",
        0.0
      ],
      [
        "<0x12>",
        0.0
      ],
      [
        "<0x13>",
        0.0
      ],
      [
        "<0x14>",
        0.0
      ],
      [
        "<0x15>",
        0.0
      ],
      [
        "<0x16>",
        0.0
      ],
      [
        "<0x17>",
        0.0
      ],
      [
        "<0x18>",
        0.0
      ],
      [
        "<0x19>",
        0.0
      ],
      [
        "<0x1A>",
        0.0
      ],
      [
        "<0x1B>",
        0.0
      ],
      [
        "<0x1C>",
        0.0
      ],
      [
        "<0x1D>",
        0.0
      ],
      [
        "<0x1E>",
        0.0
      ],
      [
        "<0x1F>",
        0.0
      ],
      [
        "<0x20>",
        0.0
      ],
      [
        "<0x21>",
        0.0
      ],
      [
        "<0x22>",
        0.0
      ],
      [
        "<0x23>",
        0.0
      ],
      [
        "<0x24>",
        0.0
      ],
      [
        "<0x25>",
        0.0
      ],
      [
        "<0x26>",
        0.0
      ],
      [
        "<0x27>",
        0.0
      ],
      [
        "<0x28>",
        0.0
      ],
      [
        "<0x29>",
        0.0
      ],
      [
        "<0x2A>",
        0.0
      ],
      [
        "<0x2B>",
        0.0
      ],
      [
        "<0x2C>",
        0.0
      ],
      [
        "<0x2D>",
        0.0
      ],
      [
        "<0x2E>",
        0.0
      ],
      [
        "<0x2F>",
        0.0
      ],
      [
        "<0x30>",
        0.0
      ],
      [
        "<0x31>",
        0.0
      ],
      [
        "<0x32>",
        0.0
      ],
      [
        "<0x33>",
        0.0
      ],
      [
        "<0x34>",
        0.0
      ],
      [
        "<0x35>",
        0.0
      ],
      [
        "<0x36>",
        0.0
      ],
      [
        "<0x37>",
        0.0
      ],
      [
        "<0x38>",
        0.0
      ],
      [
        "<0x39>",
        0.0
      ],
      [
        "<0x3A>",
        0.0
      ],
      [
        "<0x3B>",
        0.0
      ],
      [
        "<0x3C>",
        0.0
      ],
      [
        "<0x3D>",
        0.0
      ],
      [
        "<0x3E>",
        0.0
      ],
      [
        "<0x3F>",
        0.0
      ],
      [
        "<0x40>",
        0.0
      ],
      [
        "<0x41>",
        0.0
      ],
      [
        "<0x42>",
        0.0
      ],
      [
        "<0x43>",
        0.0
      ],
      [
        "<0x44>",
        0.0
      ],
      [
        "<0x45>",
        0.0
      ],
      [
        "<0x46>",
        0.0
      ],
      [
        "<0x47>",
        0.0
      ],
      [
        "<0x48>",
        0.0
      ],
      [
        "<0x49>",
        0.0
      ],
      [
        "<0x4A>",
        0.0
      ],
      [
        "<0x4B>",
        0.0
      ],
      [
        "<0x4C>",
        0.0
      ],
      [
        "<0x4D>",
        0.0
      ],
      [
        "<0x4E>",
        0.0
      ],
      [
        "<0x4F>",
        0.0
      ],
      [
        "<0x50>",
        0.0
      ],
      [
        "<0x51>",
        0.0
      ],
      [
        "<0x52>",
        0.0
      ],
      [
        "<0x53>",
        0.0
      ],
      [
        "<0x54>",
        0.0
      ],
      [
        "<0x55>",
        0.0
      ],
      [
        "<0x56>",
        0.0
      ],
      [
        "<0x57>",
        0.0
      ],
      [
        "<0x58>",
        0.0
      ],
      [
        "<0x59>",
        0.0
      ],
      [
        "<0x5A>",
        0.0
      ],
      [
        "<0x5B>",
        0.0
      ],
      [
        "<0x5C>",
        0.0
      ],
      [
        "<0x5D>",
        0.0
      ],
      [
        "<0x5E>",
        0.0
      ],
      [
        "<0x5F>",
        0.0
      ],
      [
        "<0x60>",
        0.0
      ],
      [
        "<0x61>",
        0.0
      ],
      [
        "<0x62>",
        0.0
      ],
      [
        "<0x63>",
        0.0
      ],
      [
        "<0x64>",
        0.0
      ],
      [
        "<0x65>",
        0.0
      ],
      [
        "<0x66>",
        0.0
      ],
      [
        "<0x67>",
        0.0
      ],
      [
        "<0x68>",
        0.0
      ],
      [
        "<0x69>",
        0.0
      ],
      [
        "<0x6A>",
        0.0
      ],
      [
        "<0x6B>",
        0.0
      ],
      [
        "<0x6C>",
        0.0
      ],
      [
        "<0x6D>",
        0.0
      ],
      [
        "<0x6E>",
        0.0
      ],
      [
        "<0x6F>",
        0.0
      ],
      [
        "<0x70>",
        0.0
      ],
      [
        "<0x71>",
        0.0
      ],
      [
        "<0x72>",
        0.0
      ],
      [
        "<0x73>",
        0.0
      ],
      [
        "<0x74>",
        0.0
      ],
      [
        "<0x75>",
        0.0
      ],
      [
        "<0x76>",
        0.0
      ],
      [
        "<0x77>",
        0.0
      ],
      [
        "<0x78>",
        0.0
      ],
      [
        "<0x79>",
        0.0
      ],
      [
        "<0x7A>",
        0.0
      ],
      [
        "<0x7B>",
        0.0
      ],
      [
        "<0x7C>",
        0.0
      ],
      [
        "<0x7D>",
        0.0
      ],
      [
        "<0x7E>",
        0.0
      ],
      [
        "<0x7F>",
        0.0
      ],
      [
        "<0x80>",
        0.0
      ],
      [
        "<0x81>",
        0.0
      ],
      [
        "<0x82>",
        0.0
      ],
      [
        "<0x83>",
        0.0
      ],
      [
        "<0x84>",
        0.0
      ],
      [
        "<0x85>",
        0.0
      ],
      [
        "<0x86>",
        0.0
      ],
      [
        "<0x87>",
        0.0
      ],
      [
        "<0x88>",
        0.0
      ],
      [
        "<0x89>",
        0.0
      ],
      [
        "<0x8A>",
        0.0
      ],
      [
        "<0x8B>",
        0.0
      ],
      [
        "<0x8C>",
        0.0
      ],
      [
        "<0x8D>",
        0.0
      ],
      [
        "<0x8E>",
        0.0
      ],
      [
        "<0x8F>",
        0.0
      ],
      [
        "<0x90>",
        0.0
      ],
      [
        "<0x91>",
        0.0
      ],
      [
        "<0x92>",
        0.0
      ],
      [
        "<0x93>",
        0.0
      ],
      [
        "<0x94>",
        0.0
      ],
      [
        "<0x95>",
        0.0
      ],
      [
        "<0x96>",
        0.0
      ],
      [
        "<0x97>",
        0.0
      ],
      [
        "<0x98>",
        0.0
      ],
      [
        "<0x99>",
        0.0
      ],
      [
        "<0x9A>",
        0.0
      ],
      [
        "<0x9B>",
        0.0
      ],
      [
        "<0x9C>",
        0.0
      ],
      [
        "<0x9D>",
        0.0
      ],
      [
        "<0x9E>",
        0.0
      ],
      [
        "<0x9F>",
        0.0
      ],
      [
        "<0xA0>",
        0.0
      ],
      [
        "<0xA1>",
        0.0
      ],
      [
        "<0xA2>",
        0.0
      ],
      [
        "<0xA3>",
        0.0
      ],
      [
        "<0xA4>",
        0.0
      ],
      [
        "<0xA5>",
        0.0
      ],
      [
        "<0xA6>",
        0.0
      ],
      [
        "<0xA7>",
        0.0
      ],
      [
        "<0xA8>",
        0.0
      ],
      [
        "<0xA9>",
        0.0
      ],
      [
        "<0xAA>",
        0.0
      ],
      [
        "<0xAB>",
        0.0
      ],
      [
        "<0xAC>",
        0.0
      ],
      [
        "<0xAD>",
        0.0
      ],
      [
        "<0xAE>",
        0.0
      ],
      [
        "<0xAF>",
        0.0
      ],
      [
        "<0xB0>",
        0.0
      ],
      [
        "<0xB1>",
        0.0
      ],
      [
        "<0xB2>",
        0.0
      ],
      [
        "<0xB3>",
        0.0
      ],
      [
        "<0xB4>",
        0.0
      ],
      [
        "<0xB5>",
        0.0
      ],
      [
        "<0xB6>",
        0.0
      ],
      [
        "<0xB7>",
        0.0
      ],
      [
        "<0xB8>",
        0.0
      ],
      [
        "<0xB9>",
        0.0
      ],
      [
        "<0xBA>",
        0.0
      ],
      [
        "<0xBB>",
        0.0
      ],
      [
        "<0xBC>",
        0.0
      ],
      [
        "<0xBD>",
        0.0
      ],
      [
        "<0xBE>",
        0.0
      ],
      [
        "<0xBF>",
        0.0
      ],
      [
        "<0xC0>",
        0.0
      ],
      [
        "<0xC1>",
        0.0
      ],
      [
        "<0xC2>",
        0.0
      ],
      [
        "<0xC3>",
        0.0
      ],
      [
        "<0xC4>",
        0.0
      ],
      [
        "<0xC5>",
        0.0
      ],
      [
        "<0xC6>",
        0.0
      ],
      [
        "<0xC7>",
        0.0
      ],
      [
        "<0xC8>",
        0.0
      ],
      [
        "<0xC9>",
        0.0
      ],
      [
        "<0xCA>",
        0.0
      ],
      [
        "<0xCB>",
        0.0
      ],
      [
        "<0xCC>",
        0.0
      ],
      [
        "<0xCD>",
        0.0
      ],
      [
        "<0xCE>",
        0.0
      ],
      [
        "<0xCF>",
        0.0
      ],
      [
        "<0xD0>",
        0.0
      ],
      [
        "<0xD1>",
        0.0
      ],
      [
        "<0xD2>",
        0.0
      ],
      [
        "<0xD3>",
        0.0
      ],
      [
        "<0xD4>",
        0.0
      ],
      [
        "<0xD5>",
        0.0
      ],
      [
        "<0xD6>",
        0.0
      ],
      [
        "<0xD7>",
        0.0
      ],
      [
        "<0xD8>",
        0.0
      ],
      [
        "<0xD9>",
        0.0
      ],
      [
        "<0xDA>",
        0.0
      ],
      [
        "<0xDB>",
        0.0
      ],
      [
        "<0xDC>",
        0.0
      ],
      [
        "<0xDD>",
        0.0
      ],
      [
        "<0xDE>",
        0.0
      ],
      [
        "<0xDF>",
        0.0
      ],
      [
        "<0xE0>",
        0.0
      ],
      [
        "<0xE1>",
        0.0
      ],
      [
        "<0xE2>",
        0.0
      ],
      [
        "<0xE3>",
        0.0
      ],
      [
        "<0xE4>",
        0.0
      ],
      [
        "<0xE5>",
        0.0
      ],
      [
        "<0xE6>",
        0.0
      ],
      [
        "<0xE7>",
        0.0
      ],
      [
        "<0xE8>",
        0.0
      ],
      [
        "<0xE9>",
        0.0
      ],
      [
        "<0xEA>",
        0.0
      ],
      [
        "<0xEB>",
        0.0
      ],
      [
        "<0xEC>",
        0.0
      ],
      [
        "<0xED>",
        0.0
      ],
      [
        "<0xEE>",
        0.0
      ],
      [
        "<0xEF>",
        0.0
      ],
      [
        "<0xF0>",
        0.0
      ],
      [
        "<0xF1>",
        0.0
      ],
      [
        "<0xF2>",
        0.0
      ],
      [
        "<0xF3>",
        0.0
      ],
      [
        "<0xF4>",
        0.0
      ],
      [
        "<0xF5>",
        0.0
      ],
      [
        "<0xF6>",
        0.0
      ],
      [
        "<0xF7>",
        0.0
      ],
      [
        "<0xF8>",
        0.0
      ],
      [
        "<0xF9>",
        0.0
      ],
      [
        "<0xFA>",
        0.0
      ],
      [
        "<0xFB>",
        0.0
      ],
      [
        "<0xFC>",
        0.0
      ],
      [
        "<0xFD>",
        0.0
      ],
      [
        "<0xFE>",
        0.0
      ],
      [
        "<0xFF>",
        0.0
      ],
      [
        "▁",
        -2.6609506607055664
      ],
      [
        "/",
        -2.7536227703094482
      ],
      [
        "▁-",
        -3.04721999168396
      ],
      [
        "▁git",
        -3.113999366760254
      ],
      [
        "-",
        -3.496230363845825
      ],
      [
        ".",
        -3.743706464767456
      ],
      [
        "\"",
        -4.368346214294434
      ],
      [
        "▁.",
        -4.430608749389648
      ],
      [
        ":",
        -4.560473918914795
      ],
      [
        "s",
        -4.567031383514404
      ],
      [
        "m",
        -4.634620666503906
      ],
      [
        "▁add",
        -4.6388983726501465
      ],
      [
        "'",
        -4.661603927612305
      ],
      [
        "▁--",
        -4.674075126647949
      ],
      [
        "▁\"",
        -4.725891590118408
      ],
      [
        "it",
        -4.752437591552734
      ],
      [
        "▁status",
        -4.759117603302002
      ],
      [
        "▁docker",
        -4.81805419921875
      ],
      [
        "▁'",
        -4.879700183868408
      ],
      [
        "▁comm",
        -4.894901275634766
      ],
      [
        "▁src",
        -4.931733131408691
      ],
      [
        "▁cd",
        -4.965185642242432
      ],
      [
        "api",
        -5.0070977210998535
      ],
      [
        "v",
        -5.055318832397461
      ],
      [
        "py",
        -5.123595714569092
      ],
      [
        "▁ls",
        -5.124309062957764
      ],
      [
        "d",
        -5.169609069824219
      ],
      [
        "localhost",
        -5.412693023681641
      ],
      [
        "▁push",
        -5.426542282104492
      ],
      [
        "▁curl",
        -5.429718017578125
      ],
      [
        "|",
        -5.487902641296387
      ],
      [
        "▁ssh",
        -5.521251678466797
      ],
      [
        "grep",
        -5.554312229156494
      ],
      [
        "▁diff",
        -5.563928127288818
      ],
      [
        "▁origin",
        -5.565073013305664
      ],
      [
        "▁tree",
        -5.600186824798584
      ],
      [
        "rn",
        -5.61899995803833
      ],
      [
        "name",
        -5.626278400421143
      ],
      [
        "fix",
        -5.649417400360107
      ],
      [
        "1/",
        -5.659040451049805
      ],
      [
        "▁checkout",
        -5.682686805725098
      ],
      [
        "ts",
        -5.7164459228515625
      ],
      [
        "▁make",
        -5.723303318023682
      ],
      [
        "▁log",
        -5.743217945098877
      ],
      [
        "b",
        -5.744966983795166
      ],
      [
        "A",
        -5.7545318603515625
      ],
      [
        "▁cat",
        -5.823853015899658
      ],
      [
        "find",
        -5.8246893882751465
      ],
      [
        "c",
        -5.827935695648193
      ],
      [
        "with",
        -5.832240581512451
      ],
      [
        "▁pull",
        -5.8549885749816895
      ],
      [
        "3",
        -5.902179718017578
      ],
      [
        "▁head",
        -5.911801815032959
      ],
      [
        "home",
        -5.911943435668945
      ],
      [
        "e",
        -5.916021347045898
      ],
      [
        "feat",
        -5.918992519378662
      ],
      [
        "l",
        -5.939453125
      ],
      [
        "r",
        -5.970828056335449
      ],
      [
        "▁nvim",
        -5.992267608642578
      ],
      [
        "env",
        -5.992491245269775
      ],
      [
        "▁ps",
        -6.007307052612305
      ],
      [
        "▁python",
        -6.011471271514893
      ],
      [
        "S",
        -6.016384601593018
      ],
      [
        "t",
        -6.026118278503418
      ],
      [
        "▁in",
        -6.044559478759766
      ],
      [
        "L",
        -6.050774097442627
      ],
      [
        "json",
        -6.079115867614746
      ],
      [
        "▁main",
        -6.088314056396484
      ],
      [
        "▁-20",
        -6.107562065124512
      ],
      [
        "a",
        -6.144577503204346
      ],
      [
        "▁'*.",
        -6.17476224899292
      ],
      [
        "auth",
        -6.191401958465576
      ],
      [
        "test",
        -6.192784309387207
      ],
      [
        "go",
        -6.200735092163086
      ],
      [
        "▁for",
        -6.214986324310303
      ],
      [
        "▁feat",
        -6.237794399261475
      ],
      [
        "▁../",
        -6.239124298095703
      ],
      [
        "\":\"",
        -6.239871501922607
      ],
      [
        "p",
        -6.261253833770752
      ],
      [
        "ent",
        -6.2635884284973145
      ],
      [
        "T",
        -6.274389266967773
      ],
      [
        "on",
        -6.279721736907959
      ],
      [
        "config",
        -6.3134965896606445
      ],
      [
        "f",
        -6.334428310394287
      ],
      [
        "app",
        -6.340930938720703
      ],
      [
        "▁tests",
        -6.352951526641846
      ],
      [
        "}",
        -6.354005336761475
      ],
      [
        "x",
        -6.3562421798706055
      ],
      [
        "db",
        -6.372086524963379
      ],
      [
        "root",
        -6.375714302062988
      ],
      [
        "rg",
        -6.376551628112793
      ],
      [
        "▁code",
        -6.399141311645508
      ],
      [
        "set",
        -6.3995137214660645
      ],
      [
        "▁vim",
        -6.409646034240723
      ],
      [
        "▁P",
        -6.419328689575195
      ],
      [
        "X",
        -6.424122333526611
      ],
      [
        "▁build",
        -6.430232524871826
      ],
      [
        "▁run",
        -6.436890125274658
      ],
      [
        "▁compose",
        -6.439386367797852
      ],
      [
        "do",
        -6.448928356170654
      ],
      [
        "h",
        -6.450510025024414
      ],
      [
        "O",
        -6.470953464508057
      ],
      [
        "▁install",
        -6.4809346199035645
      ],
      [
        "H",
        -6.502706050872803
      ],
      [
        "@",
        -6.511754035949707
      ],
      [
        "dev",
        -6.516790390014648
      ],
      [
        "▁tail",
        -6.529979705810547
      ],
      [
        "▁start",
        -6.534782886505127
      ],
      [
        "1",
        -6.538215637207031
      ],
      [
        "▁np",
        -6.54594087600708
      ],
      [
        "▁internal",
        -6.560437202453613
      ],
      [
        "▁su",
        -6.560548782348633
      ],
      [
        "ement",
        -6.564300537109375
      ],
      [
        "ing",
        -6.580123424530029
      ],
      [
        "Cont",
        -6.58097505569458
      ],
      [
        "impl",
        -6.584713459014893
      ],
      [
        "application",
        -6.591302871704102
      ],
      [
        "Type",
        -6.593926906585693
      ],
      [
        "eline",
        -6.598060131072998
      ],
      [
        "▁HEAD",
        -6.619623184204102
      ],
      [
        "la",
        -6.628885746002197
      ],
      [
        "▁'{\"",
        -6.641343116760254
      ],
      [
        "server",
        -6.668535232543945
      ],
      [
        "chore",
        -6.685473918914795
      ],
      [
        "User",
        -6.692112922668457
      ],
      [
        "tail",
        -6.694596767425537
      ],
      [
        "upstream",
        -6.698075294494629
      ],
      [
        "▁go",
        -6.710639476776123
      ],
      [
        "▁2",
        -6.722368240356445
      ],
      [
        "▁test",
        -6.727951526641846
      ],
      [
        "▁config",
        -6.729634761810303
      ],
      [
        "▁app",
        -6.73836612701416
      ],
      [
        "yml",
        -6.746026039123535
      ],
      [
        "▁f",
        -6.752668380737305
      ],
      [
        "n",
        -6.7586469650268555
      ],
      [
        "=",
        -6.76252555847168
      ],
      [
        "service",
        -6.7634782791137695
      ],
      [
        "▁fetch",
        -6.766751289367676
      ],
      [
        "▁w",
        -6.773344993591309
      ],
      [
        "_",
        -6.7908711433410645
      ],
      [
        "▁claude",
        -6.7962799072265625
      ],
      [
        "npm",
        -6.798616409301758
      ],
      [
        "ctl",
        -6.800312519073486
      ],
      [
        "▁kubectl",
        -6.805351734161377
      ],
      [
        "src",
        -6.806434631347656
      ],
      [
        "resolve",
        -6.818856716156006
      ],
      [
        "tsx",
        -6.822354793548584
      ],
      [
        "▁switch",
        -6.822741985321045
      ],
      [
        "the",
        -6.825756549835205
      ],
      [
        "sh",
        -6.827409267425537
      ],
      [
        "ed",
        -6.8309173583984375
      ],
      [
        "~",
        -6.831075668334961
      ],
      [
        "type",
        -6.836744785308838
      ],
      [
        "▁dev",
        -6.8398518562316895
      ],
      [
        "refactor",
        -6.852148532867432
      ],
      [
        "search",
        -6.864498615264893
      ],
      [
        "▁cmd",
        -6.865395545959473
      ],
      [
        "yaml",
        -6.866354465484619
      ],
      [
        "compose",
        -6.870460033416748
      ],
      [
        "▁system",
        -6.872619152069092
      ],
      [
        "and",
        -6.886524200439453
      ],
      [
        "user",
        -6.892115116119385
      ],
      [
        "models",
        -6.907063007354736
      ],
      [
        "▁logs",
        -6.915637016296387
      ],
      [
        "▁handle",
        -6.918220043182373
      ],
      [
        "▁fix",
        -6.9311723709106445
      ],
      [
        "\",\"",
        -6.938261985778809
      ],
      [
        "my",
        -6.940892219543457
      ],
      [
        "prod",
        -6.946968078613281
      ],
      [
        "get",
        -6.949368953704834
      ],
      [
        "stat",
        -6.954939842224121
      ],
      [
        "▁up",
        -6.9569292068481445
      ],
      [
        "log",
        -6.962947368621826
      ],
      [
        "▁-5",
        -6.978198051452637
      ],
      [
        "main",
        -6.982439041137695
      ],
      [
        "y",
        -6.98341178894043
      ],
      [
        "cp",
        -6.984120845794678
      ],
      [
        "▁pip",
        -6.9876813888549805
      ],
      [
        "▁list",
        -7.017420291900635
      ],
      [
        "▁scripts",
        -7.0250420570373535
      ],
      [
        "i",
        -7.0264129638671875
      ],
      [
        "▁emacs",
        -7.046543121337891
      ],
      [
        "utils",
        -7.048614025115967
      ],
      [
        "staging",
        -7.0560150146484375
      ],
      [
        "▁hx",
        -7.067217826843262
      ],
      [
        "k",
        -7.068893909454346
      ],
      [
        "▁p",
        -7.069751262664795
      ],
      [
        "2",
        -7.088845252990723
      ],
      [
        "▁m",
        -7.090543270111084
      ],
      [
        "▁apps",
        -7.099486827850342
      ],
      [
        "__",
        -7.100083827972412
      ],
      [
        "▁to",
        -7.102227210998535
      ],
      [
        "health",
        -7.104799270629883
      ],
      [
        "er",
        -7.113928318023682
      ],
      [
        "▁jq",
        -7.116140365600586
      ],
      [
        "me",
        -7.117471694946289
      ],
      [
        "docker",
        -7.131131649017334
      ],
      [
        "o",
        -7.132036209106445
      ],
      [
        "w",
        -7.1362080574035645
      ],
      [
        "components",
        -7.144521713256836
      ],
      [
        "av",
        -7.152184963226318
      ],
      [
        "▁nano",
        -7.156218528747559
      ],
      [
        "lh",
        -7.158754348754883
      ],
      [
        "ME",
        -7.167162895202637
      ],
      [
        "orders",
        -7.169764041900635
      ],
      [
        "wd",
        -7.180360317230225
      ],
      [
        ",",
        -7.1867756843566895
      ],
      [
        "work",
        -7.187467098236084
      ],
      [
        "mod",
        -7.190598487854004
      ],
      [
        "cache",
        -7.190938472747803
      ],
      [
        "I",
        -7.19417667388916
      ],
      [
        "rs",
        -7.1956305503845215
      ],
      [
        "-01",
        -7.209712982177734
      ],
      [
        "▁deploy",
        -7.21317195892334
      ],
      [
        "cached",
        -7.222208023071289
      ],
      [
        ":8000/",
        -7.223118782043457
      ],
      [
        ":5000/",
        -7.2250776290893555
      ],
      [
        "core",
        -7.225620746612549
      ],
      [
        ":8080/",
        -7.2265119552612305
      ],
      [
        ":4000/",
        -7.226922512054443
      ],
      [
        "▁~/.",
        -7.229450702667236
      ],
      [
        ":3000/",
        -7.230584621429443
      ],
      [
        "%",
        -7.235228538513184
      ],
      [
        "z",
        -7.238282203674316
      ],
      [
        "ch",
        -7.247981548309326
      ],
      [
        ":3001/",
        -7.248568058013916
      ],
      [
        "ui",
        -7.250828266143799
      ],
      [
        "▁migrate",
        -7.253768444061279
      ],
      [
        "▁cargo",
        -7.257513046264648
      ],
      [
        "project",
        -7.258476257324219
      ],
      [
        "code",
        -7.268158912658691
      ],
      [
        "▁re",
        -7.268855571746826
      ],
      [
        "sync",
        -7.284585475921631
      ],
      [
        "di",
        -7.285091876983643
      ],
      [
        "format",
        -7.291120529174805
      ],
      [
        "index",
        -7.297677516937256
      ],
      [
        "worker",
        -7.2986249923706055
      ],
      [
        "ct",
        -7.300789833068848
      ],
      [
        "email",
        -7.308501243591309
      ],
      [
        "rebase",
        -7.312682151794434
      ],
      [
        "time",
        -7.3136491775512695
      ],
      [
        "var",
        -7.3144917488098145
      ],
      [
        "bin",
        -7.316017150878906
      ],
      [
        "▁3",
        -7.323723316192627
      ],
      [
        "▁develop",
        -7.32533073425293
      ],
      [
        "data",
        -7.327404499053955
      ],
      [
        "▁nginx",
        -7.327474117279053
      ],
      [
        "users",
        -7.328461170196533
      ],
      [
        "D",
        -7.3287034034729
      ],
      [
        "▁node",
        -7.3302226066589355
      ],
      [
        "password",
        -7.338581085205078
      ],
      [
        "▁pytest",
        -7.3447699546813965
      ],
      [
        "zip",
        -7.345717430114746
      ],
      [
        "hot",
        -7.3549089431762695
      ],
      [
        "example",
        -7.359273433685303
      ],
      [
        "lib",
        -7.362123012542725
      ],
      [
        "rm",
        -7.365901947021484
      ],
      [
        "▁lib",
        -7.3752336502075195
      ],
      [
        "*",
        -7.381228446960449
      ],
      [
        "workspace",
        -7.384432315826416
      ],
      [
        "▁pkg",
        -7.399569034576416
      ],
      [
        "metrics",
        -7.400083065032959
      ],
      [
        "graph",
        -7.401095390319824
      ],
      [
        "▁pnpm",
        -7.405584812164307
      ],
      [
        "▁pr",
        -7.408193588256836
      ],
      [
        "\"%",
        -7.418520450592041
      ],
      [
        "routes",
        -7.419046878814697
      ],
      [
        "secret",
        -7.42017936706543
      ],
      [
        "▁bat",
        -7.4228339195251465
      ],
      [
        "us",
        -7.42818546295166
      ],
      [
        "▁corre",
        -7.4302144050598145
      ],
      [
        "C",
        -7.430868148803711
      ],
      [
        "M",
        -7.432817459106445
      ],
      [
        "▁terraform",
        -7.437445163726807
      ],
      [
        "payments",
        -7.4451775550842285
      ],
      [
        "deploy",
        -7.466264724731445
      ],
      [
        "web",
        -7.470217227935791
      ],
      [
        "re",
        -7.474682331085205
      ],
      [
        "resu",
        -7.481289386749268
      ],
      [
        "com",
        -7.481862545013428
      ],
      [
        "status",
        -7.484615325927734
      ],
      [
        "▁exec",
        -7.48773193359375
      ],
      [
        "md",
        -7.488667011260986
      ],
      [
        "middleware",
        -7.488747596740723
      ],
      [
        "txt",
        -7.492874622344971
      ],
      [
        "▁r",
        -7.500775337219238
      ],
      [
        "query",
        -7.502169609069824
      ],
      [
        "▁Makefile",
        -7.506103038787842
      ],
      [
        "all",
        -7.521529197692871
      ],
      [
        "base",
        -7.545909881591797
      ],
      [
        "\":",
        -7.546300888061523
      ],
      [
        "ssh",
        -7.547457218170166
      ],
      [
        "apt",
        -7.5527424812316895
      ],
      [
        "▁R",
        -7.55579137802124
      ],
      [
        "types",
        -7.558254718780518
      ],
      [
        "tar",
        -7.560953617095947
      ],
      [
        "EAD",
        -7.563823699951172
      ],
      [
        "▁restart",
        -7.564891338348389
      ],
      [
        "rf",
        -7.566007137298584
      ],
      [
        "▁clea",
        -7.571960926055908
      ],
      [
        "webhooks",
        -7.5732741355896
      ],
      [
        "▁release",
        -7.573882102966309
      ],
      [
        "system",
        -7.581305503845215
      ],
      [
        "▁gh",
        -7.589462757110596
      ],
      [
        "repos",
        -7.600233554840088
      ],
      [
        "unit",
        -7.600311279296875
      ],
      [
        "▁sourc",
        -7.6053924560546875
      ],
      [
        "cli",
        -7.608642101287842
      ],
      [
        "▁../..",
        -7.61217737197876
      ],
      [
        "to",
        -7.621444225311279
      ],
      [
        "keys",
        -7.622664451599121
      ],
      [
        "proxy",
        -7.625620365142822
      ],
      [
        "▁database",
        -7.628215789794922
      ],
      [
        "error",
        -7.634588241577148
      ],
      [
        "▁po",
        -7.64375114440918
      ],
      [
        "▁du",
        -7.654409408569336
      ],
      [
        "▁lint",
        -7.661382675170898
      ],
      [
        "8",
        -7.669046878814697
      ],
      [
        "PI",
        -7.670698165893555
      ],
      [
        "bak",
        -7.680654048919678
      ],
      [
        "limit",
        -7.68773078918457
      ],
      [
        "build",
        -7.690484523773193
      ],
      [
        "▁package",
        -7.693297386169434
      ],
      [
        "rate",
        -7.7079973220825195
      ],
      [
        "integration",
        -7.714843273162842
      ],
      [
        "whi",
        -7.71585750579834
      ],
      [
        "sql",
        -7.730203151702881
      ],
      [
        "▁export",
        -7.736496448516846
      ],
      [
        "E",
        -7.738089561462402
      ],
      [
        "▁redis",
        -7.739485263824463
      ],
      [
        "login",
        -7.741064548492432
      ],
      [
        "{",
        -7.741400718688965
      ],
      [
        "/...",
        -7.744747161865234
      ],
      [
        "import",
        -7.755367279052734
      ],
      [
        "key",
        -7.758734703063965
      ],
      [
        "export",
        -7.765365123748779
      ],
      [
        "▁l",
        -7.769105434417725
      ],
      [
        "gz",
        -7.769937992095947
      ],
      [
        "▁packages",
        -7.7805562019348145
      ],
      [
        "memory",
        -7.780749320983887
      ],
      [
        "▁check",
        -7.790765762329102
      ],
      [
        "by",
        -7.791607856750488
      ],
      [
        "rollback",
        -7.792434215545654
      ],
      [
        "rom",
        -7.802995204925537
      ],
      [
        "platform",
        -7.808218955993652
      ],
      [
        "▁fmt",
        -7.809877395629883
      ],
      [
        "▁de",
        -7.8101959228515625
      ],
      [
        "▁requirements",
        -7.812341690063477
      ],
      [
        "activate",
        -7.824491024017334
      ],
      [
        "hooks",
        -7.82536506652832
      ],
      [
        "products",
        -7.82561731338501
      ],
      [
        "▁Dockerfile",
        -7.828160285949707
      ],
      [
        "currency",
        -7.82916784286499
      ],
      [
        "▁tmux",
        -7.829813003540039
      ],
      [
        "10",
        -7.831733703613281
      ],
      [
        "▁data",
        -7.833608627319336
      ],
      [
        "g",
        -7.836399078369141
      ],
      [
        "gen",
        -7.840418815612793
      ],
      [
        "5519",
        -7.840996265411377
      ],
      [
        "▁k",
        -7.856639862060547
      ],
      [
        "▁branch",
        -7.860631465911865
      ],
      [
        "ion",
        -7.861492156982422
      ],
      [
        "perf",
        -7.861979007720947
      ],
      [
        "▁stash",
        -7.862279415130615
      ],
      [
        "+1",
        -7.863187313079834
      ],
      [
        "size",
        -7.867998123168945
      ],
      [
        "release",
        -7.86988639831543
      ],
      [
        "▁ed",
        -7.8708882331848145
      ],
      [
        "▁C",
        -7.877100944519043
      ],
      [
        "leak",
        -7.877497673034668
      ],
      [
        "dashboard",
        -7.881462574005127
      ],
      [
        "F",
        -7.886014938354492
      ],
      [
        "events",
        -7.900700092315674
      ],
      [
        "ue",
        -7.91162633895874
      ],
      [
        "2.1",
        -7.920005798339844
      ],
      [
        "▁update",
        -7.940989017486572
      ],
      [
        "engine",
        -7.94234561920166
      ],
      [
        "▁aux",
        -7.942690849304199
      ],
      [
        "race",
        -7.944112300872803
      ],
      [
        "handler",
        -7.9532952308654785
      ],
      [
        "ess",
        -7.953638076782227
      ],
      [
        "am",
        -7.955222129821777
      ],
      [
        "▁u",
        -7.955354690551758
      ],
      [
        "5",
        -7.964019775390625
      ],
      [
        "admin",
        -7.966095924377441
      ],
      [
        "term",
        -7.973051071166992
      ],
      [
        "ly",
        -7.973347187042236
      ],
      [
        "▁postgres",
        -7.975934028625488
      ],
      [
        "▁50",
        -7.977336883544922
      ],
      [
        "pagination",
        -7.977529048919678
      ],
      [
        "opt",
        -7.98867130279541
      ],
      [
        "client",
        -7.988912582397461
      ],
      [
        "top",
        -7.990363597869873
      ],
      [
        "▁my",
        -7.994516849517822
      ],
      [
        "▁mongo",
        -7.995088577270508
      ],
      [
        "studio",
        -7.995651721954346
      ],
      [
        "▁free",
        -8.005227088928223
      ],
      [
        "spike",
        -8.005607604980469
      ],
      [
        "▁experiment",
        -8.007328033447266
      ],
      [
        "tion",
        -8.008390426635742
      ],
      [
        "ount",
        -8.010190963745117
      ],
      [
        "ww",
        -8.01138973236084
      ],
      [
        "def",
        -8.011937141418457
      ],
      [
        "2500",
        -8.012757301330566
      ],
      [
        "al",
        -8.013286590576172
      ],
      [
        "ry",
        -8.024003982543945
      ],
      [
        "▁pods",
        -8.024125099182129
      ],
      [
        "▁..",
        -8.028199195861816
      ],
      [
        ",\"",
        -8.029383659362793
      ],
      [
        "cho",
        -8.032979011535645
      ],
      [
        "▁ch",
        -8.036750793457031
      ],
      [
        "accounts",
        -8.037521362304688
      ],
      [
        "order",
        -8.039351463317871
      ],
      [
        "latest",
        -8.04356861114502
      ],
      [
        "le",
        -8.044783592224121
      ],
      [
        "version",
        -8.050362586975098
      ],
      [
        "file",
        -8.065878868103027
      ],
      [
        "▁seed",
        -8.067264556884766
      ],
      [
        "async",
        -8.068434715270996
      ],
      [
        "venv",
        -8.068620681762695
      ],
      [
        "▁monitoring",
        -8.082887649536133
      ],
      [
        "services",
        -8.08742618560791
      ],
      [
        "TODO",
        -8.088360786437988
      ],
      [
        "▁sc",
        -8.092018127441406
      ],
      [
        "store",
        -8.09595775604248
      ],
      [
        "▁-9",
        -8.100106239318848
      ],
      [
        "▁-10",
        -8.100446701049805
      ],
      [
        "▁worker",
        -8.103802680969238
      ],
      [
        "6",
        -8.104338645935059
      ],
      [
        "local",
        -8.105132102966309
      ],
      [
        "▁file",
        -8.109153747558594
      ],
      [
        "▁web",
        -8.111775398254395
      ],
      [
        "etry",
        -8.123152732849121
      ],
      [
        "etc",
        -8.13060474395752
      ],
      [
        "▁connection",
        -8.136507987976074
      ],
      [
        "▁issue",
        -8.138221740722656
      ],
      [
        "class",
        -8.13882827758789
      ],
      [
        "▁caus",
        -8.14098834991455
      ],
      [
        "▁admin",
        -8.142366409301758
      ],
      [
        "▁se",
        -8.142801284790039
      ],
      [
        "▁manage",
        -8.151617050170898
      ],
      [
        "▁\".",
        -8.159036636352539
      ],
      [
        "token",
        -8.160740852355957
      ],
      [
        "view",
        -8.160868644714355
      ],
      [
        "▁bre",
        -8.165655136108398
      ],
      [
        "shared",
        -8.169954299926758
      ],
      [
        "session",
        -8.180869102478027
      ],
      [
        "▁prisma",
        -8.182302474975586
      ],
      [
        "os",
        -8.18581771850586
      ],
      [
        "automated",
        -8.18825912475586
      ],
      [
        "▁dist",
        -8.18891429901123
      ],
      [
        "stripe",
        -8.189083099365234
      ],
      [
        "func",
        -8.190805435180664
      ],
      [
        "dist",
        -8.195245742797852
      ],
      [
        "note",
        -8.203383445739746
      ],
      [
        "ange",
        -8.207221984863281
      ],
      [
        "analytics",
        -8.21286678314209
      ],
      [
        "ment",
        -8.213308334350586
      ],
      [
        "▁-1",
        -8.218502044677734
      ],
      [
        "▁on",
        -8.221297264099121
      ],
      [
        "backup",
        -8.223660469055176
      ],
      [
        "no",
        -8.228211402893066
      ],
      [
        "R",
        -8.230256080627441
      ],
      [
        "▁order",
        -8.231328010559082
      ],
      [
        "▁vitest",
        -8.231403350830078
      ],
      [
        "frontend",
        -8.233460426330566
      ],
      [
        ":~/",
        -8.233808517456055
      ],
      [
        "ance",
        -8.236876487731934
      ],
      [
        "deprecat",
        -8.237585067749023
      ],
      [
        "modules",
        -8.237586975097656
      ],
      [
        "portal",
        -8.240158081054688
      ],
      [
        "hub",
        -8.240283012390137
      ],
      [
        "tf",
        -8.241645812988281
      ],
      [
        "▁tar",
        -8.246621131896973
      ],
      [
        "▁db",
        -8.254237174987793
      ],
      [
        "▁response",
        -8.254253387451172
      ],
      [
        "webhook",
        -8.257781028747559
      ],
      [
        "handlers",
        -8.262188911437988
      ],
      [
        "permission",
        -8.262646675109863
      ],
      [
        "▁clean",
        -8.263976097106934
      ],
      [
        "zf",
        -8.26414680480957
      ],
      [
        "▁endpoint",
        -8.265691757202148
      ],
      [
        "▁upgrade",
        -8.267101287841797
      ],
      [
        "ip",
        -8.269770622253418
      ],
      [
        "ack",
        -8.270051002502441
      ],
      [
        "turn",
        -8.27217960357666
      ],
      [
        "ns",
        -8.2769775390625
      ],
      [
        "wsgi",
        -8.279536247253418
      ],
      [
        "gateway",
        -8.28691577911377
      ],
      [
        "dy",
        -8.288802146911621
      ],
      [
        "▁conda",
        -8.29134464263916
      ],
      [
        "backend",
        -8.292557716369629
      ],
      [
        "finit",
        -8.296270370483398
      ],
      [
        "▁A",
        -8.297821044921875
      ],
      [
        "dark",
        -8.299510955810547
      ],
      [
        "▁G",
        -8.30563735961914
      ],
      [
        "rou",
        -8.306554794311523
      ],
      [
        "▁drizzle",
        -8.307336807250977
      ],
      [
        "▁deployment",
        -8.314183235168457
      ],
      [
        "4",
        -8.314486503601074
      ],
      [
        "sum",
        -8.315752029418945
      ],
      [
        "toml",
        -8.317537307739258
      ],
      [
        "▁staging",
        -8.318318367004395
      ],
      [
        "bug",
        -8.318881034851074
      ],
      [
        "uptime",
        -8.321046829223633
      ],
      [
        "ill",
        -8.323622703552246
      ],
      [
        "limiting",
        -8.329414367675781
      ],
      [
        ")",
        -8.334247589111328
      ],
      [
        "▁elasticsearch",
        -8.336926460266113
      ],
      [
        "▁e",
        -8.337278366088867
      ],
      [
        "▁./.",
        -8.338258743286133
      ],
      [
        "df",
        -8.34080696105957
      ],
      [
        "▁token",
        -8.345436096191406
      ],
      [
        "u",
        -8.345539093017578
      ],
      [
        "▁memcached",
        -8.347183227539062
      ],
      [
        "ace",
        -8.351788520812988
      ],
      [
        "sk",
        -8.353300094604492
      ],
      [
        "▁production",
        -8.361366271972656
      ],
      [
        "tlnp",
        -8.367185592651367
      ],
      [
        "▁retry",
        -8.367294311523438
      ],
      [
        "ve",
        -8.367708206176758
      ],
      [
        "du",
        -8.370083808898926
      ],
      [
        "▁watch",
        -8.370770454406738
      ],
      [
        "▁repl",
        -8.371969223022461
      ],
      [
        "▁rabbitmq",
        -8.374682426452637
      ],
      [
        "▁lazy",
        -8.375396728515625
      ],
      [
        "▁multip",
        -8.376138687133789
      ],
      [
        "▁mailhog",
        -8.37915325164795
      ],
      [
        "old",
        -8.380024909973145
      ],
      [
        "▁refactor",
        -8.380436897277832
      ],
      [
        "▁minio",
        -8.381397247314453
      ],
      [
        "bun",
        -8.388033866882324
      ],
      [
        "▁sh",
        -8.388812065124512
      ],
      [
        "tu",
        -8.389408111572266
      ],
      [
        "null",
        -8.389583587646484
      ],
      [
        "check",
        -8.391910552978516
      ],
      [
        "▁network",
        -8.392678260803223
      ],
      [
        "(",
        -8.395578384399414
      ],
      [
        "▁down",
        -8.398584365844727
      ],
      [
        "▁top",
        -8.399690628051758
      ],
      [
        "ya",
        -8.401188850402832
      ],
      [
        "▁time",
        -8.404293060302734
      ],
      [
        "▁df",
        -8.404397010803223
      ],
      [
        "th",
        -8.412744522094727
      ],
      [
        "able",
        -8.416723251342773
      ],
      [
        "▁webhook",
        -8.419134140014648
      ],
      [
        "python",
        -8.420364379882812
      ],
      [
        "cat",
        -8.42799186706543
      ],
      [
        "upload",
        -8.433653831481934
      ],
      [
        "▁backup",
        -8.435517311096191
      ],
      [
        "ton",
        -8.436883926391602
      ],
      [
        "▁'.",
        -8.438688278198242
      ],
      [
        "helpers",
        -8.44370174407959
      ],
      [
        "9",
        -8.447359085083008
      ],
      [
        "▁ex",
        -8.44819164276123
      ],
      [
        "▁whe",
        -8.453387260437012
      ],
      [
        "ownloads",
        -8.458105087280273
      ],
      [
        "ic",
        -8.459699630737305
      ],
      [
        "▁eslint",
        -8.45991039276123
      ],
      [
        "▁~/",
        -8.462071418762207
      ],
      [
        "PATH",
        -8.464639663696289
      ],
      [
        "train",
        -8.468299865722656
      ],
      [
        "▁gt",
        -8.470343589782715
      ],
      [
        "=.",
        -8.474346160888672
      ],
      [
        "▁updates",
        -8.476122856140137
      ],
      [
        "monitoring",
        -8.476502418518066
      ],
      [
        "▁support",
        -8.477676391601562
      ],
      [
        "▁call",
        -8.478581428527832
      ],
      [
        "▁torch",
        -8.480781555175781
      ],
      [
        "▁off",
        -8.481217384338379
      ],
      [
        "▁turbo",
        -8.482943534851074
      ],
      [
        "logging",
        -8.483518600463867
      ],
      [
        "7",
        -8.4873628616333
      ],
      [
        "▁condition",
        -8.488389015197754
      ],
      [
        "▁custom",
        -8.496745109558105
      ],
      [
        "▁generate",
        -8.507743835449219
      ],
      [
        "daemon",
        -8.509708404541016
      ],
      [
        "git",
        -8.512002944946289
      ],
      [
        "▁handler",
        -8.512024879455566
      ],
      [
        "mode",
        -8.512716293334961
      ],
      [
        "templates",
        -8.517592430114746
      ],
      [
        "bash",
        -8.519389152526855
      ],
      [
        "sort",
        -8.520543098449707
      ],
      [
        "ract",
        -8.523224830627441
      ],
      [
        "0",
        -8.528250694274902
      ],
      [
        "▁new",
        -8.532336235046387
      ],
      [
        "handling",
        -8.533944129943848
      ],
      [
        "te",
        -8.53424072265625
      ],
      [
        "hydration",
        -8.534588813781738
      ],
      [
        "N",
        -8.5401611328125
      ],
      [
        "stack",
        -8.542179107666016
      ],
      [
        "▁date",
        -8.542810440063477
      ],
      [
        "rc",
        -8.545337677001953
      ],
      [
        "init",
        -8.548723220825195
      ],
      [
        "consol",
        -8.552738189697266
      ],
      [
        "mono",
        -8.561281204223633
      ],
      [
        "free",
        -8.563481330871582
      ],
      [
        "▁refresh",
        -8.565825462341309
      ],
      [
        "ln",
        -8.566822052001953
      ],
      [
        "▁pool",
        -8.567798614501953
      ],
      [
        "package",
        -8.567816734313965
      ],
      [
        "development",
        -8.570501327514648
      ],
      [
        "mp",
        -8.570513725280762
      ],
      [
        "▁email",
        -8.573551177978516
      ],
      [
        "▁event",
        -8.57421875
      ],
      [
        "▁que",
        -8.574481964111328
      ],
      [
        "▁loading",
        -8.57588005065918
      ],
      [
        "results",
        -8.577667236328125
      ],
      [
        "▁-6",
        -8.578031539916992
      ],
      [
        "▁-7",
        -8.581460952758789
      ],
      [
        "▁sha",
        -8.586901664733887
      ],
      [
        "save",
        -8.591268539428711
      ],
      [
        "infra",
        -8.591814041137695
      ],
      [
        "▁g",
        -8.595657348632812
      ],
      [
        "responsive",
        -8.596007347106934
      ],
      [
        "▁configur",
        -8.599515914916992
      ],
      [
        "page",
        -8.601262092590332
      ],
      [
        "▁ansible",
        -8.60612678527832
      ],
      [
        "▁split",
        -8.609647750854492
      ],
      [
        "settings",
        -8.614996910095215
      ],
      [
        "▁x",
        -8.615472793579102
      ],
      [
        "▁S",
        -8.616358757019043
      ],
      [
        "cu",
        -8.621566772460938
      ],
      [
        "▁layer",
        -8.621706008911133
      ],
      [
        "model",
        -8.626822471618652
      ],
      [
        "▁-8",
        -8.6357421875
      ],
      [
        "url",
        -8.638496398925781
      ],
      [
        "▁create",
        -8.641166687011719
      ],
      [
        "▁failure",
        -8.642685890197754
      ],
      [
        "layout",
        -8.644107818603516
      ],
      [
        "▁wrangler",
        -8.645909309387207
      ],
      [
        "12",
        -8.648427963256836
      ],
      [
        "bot",
        -8.65247917175293
      ],
      [
        "▁real",
        -8.657254219055176
      ],
      [
        "cloud",
        -8.661760330200195
      ],
      [
        "▁2200",
        -8.66365909576416
      ],
      [
        "▁validation",
        -8.663886070251465
      ],
      [
        "▁batch",
        -8.664276123046875
      ],
      [
        "ON",
        -8.665742874145508
      ],
      [
        "ure",
        -8.671661376953125
      ],
      [
        "ting",
        -8.672061920166016
      ],
      [
        "ary",
        -8.675050735473633
      ],
      [
        "▁dependenc",
        -8.67819595336914
      ],
      [
        "validator",
        -8.680136680603027
      ],
      [
        "▁PATH",
        -8.681819915771484
      ],
      [
        "2222",
        -8.687162399291992
      ],
      [
        "pipeline",
        -8.68825912475586
      ],
      [
        "▁N",
        -8.690028190612793
      ],
      [
        "prometheus",
        -8.690714836120605
      ],
      [
        "fail",
        -8.693076133728027
      ],
      [
        "generat",
        -8.693413734436035
      ],
      [
        "ers",
        -8.69603443145752
      ],
      [
        "▁con",
        -8.699333190917969
      ],
      [
        "art",
        -8.699548721313477
      ],
      [
        "▁22",
        -8.702919006347656
      ],
      [
        "▁cache",
        -8.704855918884277
      ],
      [
        "syslog",
        -8.707762718200684
      ],
      [
        "▁form",
        -8.70869255065918
      ],
      [
        "pointer",
        -8.713338851928711
      ],
      [
        "replica",
        -8.714311599731445
      ],
      [
        "pages",
        -8.715113639831543
      ],
      [
        "caching",
        -8.71635913848877
      ],
      [
        "man",
        -8.719945907592773
      ],
      [
        "▁images",
        -8.727120399475098
      ],
      [
        "ze",
        -8.731302261352539
      ],
      [
        "▁pac",
        -8.73497486114502
      ],
      [
        "▁requests",
        -8.742850303649902
      ],
      [
        "internal",
        -8.744769096374512
      ],
      [
        "ocket",
        -8.745060920715332
      ],
      [
        "ation",
        -8.747056007385254
      ],
      [
        "primary",
        -8.760475158691406
      ],
      [
        "U",
        -8.764850616455078
      ],
      [
        "▁stat",
        -8.76706600189209
      ],
      [
        "olum",
        -8.767077445983887
      ],
      [
        "▁print",
        -8.767881393432617
      ],
      [
        "que",
        -8.77001667022705
      ],
      [
        "▁error",
        -8.773187637329102
      ],
      [
        "svc",
        -8.77328109741211
      ],
      [
        "▁un",
        -8.785061836242676
      ],
      [
        "▁upload",
        -8.786184310913086
      ],
      [
        "▁content",
        -8.788046836853027
      ],
      [
        "▁optimi",
        -8.788758277893066
      ],
      [
        "▁flask",
        -8.790027618408203
      ],
      [
        "▁security",
        -8.79198169708252
      ],
      [
        "run",
        -8.792174339294434
      ],
      [
        "▁tag",
        -8.794686317443848
      ],
      [
        "sta",
        -8.795552253723145
      ],
      [
        "sof",
        -8.796394348144531
      ],
      [
        "repository",
        -8.805351257324219
      ],
      [
        "▁migration",
        -8.805464744567871
      ],
      [
        "▁bu",
        -8.810026168823242
      ],
      [
        "js",
        -8.810992240905762
      ],
      [
        "▁image",
        -8.811017990112305
      ],
      [
        "merge",
        -8.811396598815918
      ],
      [
        "processing",
        -8.811450004577637
      ],
      [
        "lation",
        -8.816052436828613
      ],
      [
        "edge",
        -8.816433906555176
      ],
      [
        "▁user",
        -8.816889762878418
      ],
      [
        "kit",
        -8.817076683044434
      ],
      [
        "nam",
        -8.818818092346191
      ],
      [
        "job",
        -8.819767951965332
      ],
      [
        "ust",
        -8.819822311401367
      ],
      [
        "filter",
        -8.821344375610352
      ],
      [
        "SQL",
        -8.82192325592041
      ],
      [
        "Bu",
        -8.82318115234375
      ],
      [
        "open",
        -8.827286720275879
      ],
      [
        "ti",
        -8.82797908782959
      ],
      [
        "▁request",
        -8.828943252563477
      ],
      [
        "ions",
        -8.82957935333252
      ],
      [
        "▁payment",
        -8.829687118530273
      ],
      [
        "▁Redis",
        -8.83102035522461
      ],
      [
        "▁libs",
        -8.831135749816895
      ],
      [
        "idate",
        -8.836270332336426
      ],
      [
        "/(",
        -8.838403701782227
      ],
      [
        "▁Open",
        -8.83981704711914
      ],
      [
        "▁histo",
        -8.841601371765137
      ],
      [
        "▁ext",
        -8.845528602600098
      ],
      [
        "▁uvicorn",
        -8.852448463439941
      ],
      [
        "schema",
        -8.855223655700684
      ],
      [
        "arg",
        -8.860513687133789
      ],
      [
        "use",
        -8.86732292175293
      ],
      [
        "last",
        -8.86978530883789
      ],
      [
        "▁download",
        -8.872563362121582
      ],
      [
        "ime",
        -8.87264347076416
      ],
      [
        "▁CS",
        -8.875009536743164
      ],
      [
        "ault",
        -8.877366065979004
      ],
      [
        "experiment",
        -8.882706642150879
      ],
      [
        "▁prettier",
        -8.8884859085083
      ],
      [
        "loo",
        -8.89100456237793
      ],
      [
        "gr",
        -8.897102355957031
      ],
      [
        "logger",
        -8.900673866271973
      ],
      [
        "▁streaming",
        -8.904467582702637
      ],
      [
        "pa",
        -8.906007766723633
      ],
      [
        "18",
        -8.906302452087402
      ],
      [
        "▁archive",
        -8.906624794006348
      ],
      [
        "update",
        -8.90894889831543
      ],
      [
        "▁remo",
        -8.91053581237793
      ],
      [
        "tenant",
        -8.910636901855469
      ],
      [
        "ick",
        -8.917556762695312
      ],
      [
        "add",
        -8.918122291564941
      ],
      [
        "plicate",
        -8.925930976867676
      ],
      [
        "ow",
        -8.926040649414062
      ],
      [
        "argo",
        -8.927536964416504
      ],
      [
        "▁configs",
        -8.927645683288574
      ],
      [
        "deps",
        -8.931844711303711
      ],
      [
        "har",
        -8.93758773803711
      ],
      [
        "ci",
        -8.93820858001709
      ],
      [
        "▁calculation",
        -8.939153671264648
      ],
      [
        "eng",
        -8.939214706420898
      ],
      [
        "▁tsc",
        -8.94041919708252
      ],
      [
        ")/",
        -8.942086219787598
      ],
      [
        "ity",
        -8.944830894470215
      ],
      [
        "▁case",
        -8.945585250854492
      ],
      [
        "▁mode",
        -8.946850776672363
      ],
      [
        "▁ref",
        -8.949990272521973
      ],
      [
        "ach",
        -8.954423904418945
      ],
      [
        "15",
        -8.955219268798828
      ],
      [
        "▁vite",
        -8.955405235290527
      ],
      [
        "security",
        -8.957147598266602
      ],
      [
        "▁services",
        -8.957332611083984
      ],
      [
        "▁bi",
        -8.958110809326172
      ],
      [
        "devops",
        -8.960463523864746
      ],
      [
        "een",
        -8.96111011505127
      ],
      [
        "CI",
        -8.963408470153809
      ],
      [
        "256",
        -8.965798377990723
      ],
      [
        "etw",
        -8.965926170349121
      ],
      [
        "ping",
        -8.970565795898438
      ],
      [
        "34",
        -8.971882820129395
      ],
      [
        "king",
        -8.976114273071289
      ],
      [
        "count",
        -8.978165626525879
      ],
      [
        "▁bla",
        -8.982091903686523
      ],
      [
        "▁vulnerabilit",
        -8.982236862182617
      ],
      [
        "mal",
        -8.984237670898438
      ],
      [
        "▁graceful",
        -8.9847993850708
      ],
      [
        "raw",
        -8.984854698181152
      ],
      [
        "nfo",
        -8.989655494689941
      ],
      [
        "grafana",
        -8.99052906036377
      ],
      [
        "▁logic",
        -8.99199390411377
      ],
      [
        "▁submission",
        -8.992527961730957
      ],
      [
        "agent",
        -8.997222900390625
      ],
      [
        "render",
        -8.997383117675781
      ],
      [
        "att",
        -8.999014854431152
      ],
      [
        "SS",
        -9.000343322753906
      ],
      [
        "▁bundle",
        -9.001358032226562
      ],
      [
        "▁expiry",
        -9.002899169921875
      ],
      [
        "▁window",
        -9.003447532653809
      ],
      [
        "14",
        -9.004302024841309
      ],
      [
        "▁errors",
        -9.005269050598145
      ],
      [
        "nc",
        -9.005280494689941
      ],
      [
        "sli",
        -9.005685806274414
      ],
      [
        "▁runserver",
        -9.005990982055664
      ],
      [
        "rotation",
        -9.008164405822754
      ],
      [
        "next",
        -9.010332107543945
      ],
      [
        "▁def",
        -9.011578559875488
      ],
      [
        "▁is",
        -9.013899803161621
      ],
      [
        "ication",
        -9.014193534851074
      ],
      [
        "report",
        -9.014670372009277
      ],
      [
        "▁route",
        -9.018099784851074
      ],
      [
        "training",
        -9.018484115600586
      ],
      [
        "messaging",
        -9.018640518188477
      ],
      [
        "▁PostgreSQL",
        -9.019789695739746
      ],
      [
        "▁flow",
        -9.020219802856445
      ],
      [
        "event",
        -9.024677276611328
      ],
      [
        "connection",
        -9.025565147399902
      ],
      [
        "▁management",
        -9.0279541015625
      ],
      [
        "est",
        -9.028532028198242
      ],
      [
        "proc",
        -9.028990745544434
      ],
      [
        "features",
        -9.037400245666504
      ],
      [
        "condition",
        -9.040475845336914
      ],
      [
        "11",
        -9.043310165405273
      ],
      [
        "▁search",
        -9.043400764465332
      ],
      [
        "debug",
        -9.049422264099121
      ],
      [
        "▁4",
        -9.050724029541016
      ],
      [
        "ine",
        -9.051526069641113
      ],
      [
        "host",
        -9.051932334899902
      ],
      [
        "aft",
        -9.052227020263672
      ],
      [
        "▁middleware",
        -9.055315017700195
      ],
      [
        "ab",
        -9.05711555480957
      ],
      [
        "ml",
        -9.059317588806152
      ],
      [
        "▁load",
        -9.061574935913086
      ],
      [
        "ding",
        -9.061976432800293
      ],
      [
        "unico",
        -9.06464672088623
      ],
      [
        "▁spec",
        -9.067132949829102
      ],
      [
        "▁net",
        -9.070475578308105
      ],
      [
        "of",
        -9.074260711669922
      ],
      [
        "eb",
        -9.078252792358398
      ],
      [
        "▁pages",
        -9.07884693145752
      ],
      [
        "od",
        -9.079296112060547
      ],
      [
        "kup",
        -9.079469680786133
      ],
      [
        "production",
        -9.079729080200195
      ],
      [
        "▁automati",
        -9.088845252990723
      ],
      [
        "▁notebooks",
        -9.096155166625977
      ],
      [
        "13",
        -9.098225593566895
      ],
      [
        "▁cont",
        -9.103669166564941
      ],
      [
        "sed",
        -9.107094764709473
      ],
      [
        "▁verification",
        -9.107501983642578
      ],
      [
        "common",
        -9.111738204956055
      ],
      [
        "feature",
        -9.114197731018066
      ],
      [
        "max",
        -9.114232063293457
      ],
      [
        "live",
        -9.119548797607422
      ],
      [
        "port",
        -9.122318267822266
      ],
      [
        "▁flag",
        -9.125658988952637
      ],
      [
        "graphql",
        -9.126242637634277
      ],
      [
        "ami",
        -9.13026237487793
      ],
      [
        "cross",
        -9.131606101989746
      ],
      [
        "charts",
        -9.135196685791016
      ],
      [
        "▁gra",
        -9.137039184570312
      ],
      [
        "upgrade",
        -9.137153625488281
      ],
      [
        "▁multi",
        -9.13875961303711
      ],
      [
        "OR",
        -9.138983726501465
      ],
      [
        "migrate",
        -9.139723777770996
      ],
      [
        "▁audit",
        -9.140369415283203
      ],
      [
        "spec",
        -9.143106460571289
      ],
      [
        "pp",
        -9.144416809082031
      ],
      [
        "flow",
        -9.147923469543457
      ],
      [
        "▁wh",
        -9.148080825805664
      ],
      [
        "-01:/",
        -9.148168563842773
      ],
      [
        "▁resolution",
        -9.148964881896973
      ],
      [
        "NG",
        -9.149751663208008
      ],
      [
        "▁ss",
        -9.153066635131836
      ],
      [
        "in",
        -9.15959644317627
      ],
      [
        "▁queries",
        -9.15989875793457
      ],
      [
        "tasks",
        -9.164813995361328
      ],
      [
        "arge",
        -9.165874481201172
      ],
      [
        "▁rollback",
        -9.17137336730957
      ],
      [
        "▁bastion",
        -9.171772003173828
      ],
      [
        "▁render",
        -9.173307418823242
      ],
      [
        "Auth",
        -9.178428649902344
      ],
      [
        "▁0.0.0.0",
        -9.17873477935791
      ],
      [
        "compl",
        -9.18214225769043
      ],
      [
        "route",
        -9.18410587310791
      ],
      [
        "es",
        -9.189167022705078
      ],
      [
        "da",
        -9.192191123962402
      ],
      [
        "tit",
        -9.193854331970215
      ],
      [
        "▁rollout",
        -9.194750785827637
      ],
      [
        "ler",
        -9.196566581726074
      ],
      [
        "ipynb",
        -9.197286605834961
      ],
      [
        "ail",
        -9.197660446166992
      ],
      [
        "presigned",
        -9.201102256774902
      ],
      [
        ":8000",
        -9.201787948608398
      ],
      [
        "ebounce",
        -9.204292297363281
      ],
      [
        "duc",
        -9.21079158782959
      ],
      [
        "fin",
        -9.212337493896484
      ],
      [
        "▁tailwind",
        -9.217524528503418
      ],
      [
        "evaluate",
        -9.222953796386719
      ],
      [
        "▁files",
        -9.224384307861328
      ],
      [
        "G",
        -9.226966857910156
      ],
      [
        "commands",
        -9.22823715209961
      ],
      [
        "ctor",
        -9.230683326721191
      ],
      [
        "ini",
        -9.231919288635254
      ],
      [
        "role",
        -9.232990264892578
      ],
      [
        "ial",
        -9.238445281982422
      ],
      [
        "per",
        -9.240517616271973
      ],
      [
        "hart",
        -9.243391036987305
      ],
      [
        "soc",
        -9.24368667602539
      ],
      [
        "box",
        -9.246772766113281
      ],
      [
        "nary",
        -9.246844291687012
      ],
      [
        "une",
        -9.251715660095215
      ],
      [
        "OD",
        -9.252606391906738
      ],
      [
        "lock",
        -9.267094612121582
      ],
      [
        "line",
        -9.26728630065918
      ],
      [
        "ctions",
        -9.27199649810791
      ],
      [
        "tru",
        -9.275105476379395
      ],
      [
        "0.0.0.0",
        -9.276165008544922
      ],
      [
        "-02",
        -9.277466773986816
      ],
      [
        "cript",
        -9.278837203979492
      ],
      [
        "hr",
        -9.282493591308594
      ],
      [
        "repo",
        -9.285345077514648
      ],
      [
        "action",
        -9.285719871520996
      ],
      [
        "TH",
        -9.286791801452637
      ],
      [
        "ential",
        -9.288188934326172
      ],
      [
        "▁feature",
        -9.291068077087402
      ],
      [
        "down",
        -9.291183471679688
      ],
      [
        "▁all",
        -9.293241500854492
      ],
      [
        "▁dashboard",
        -9.298042297363281
      ],
      [
        "56",
        -9.299093246459961
      ],
      [
        "curren",
        -9.301118850708008
      ],
      [
        "is",
        -9.304586410522461
      ],
      [
        "conf",
        -9.305397987365723
      ],
      [
        "ute",
        -9.306242942810059
      ],
      [
        "-4",
        -9.307235717773438
      ],
      [
        "▁service",
        -9.310250282287598
      ],
      [
        "playbooks",
        -9.312746047973633
      ],
      [
        "scra",
        -9.315606117248535
      ],
      [
        "migration",
        -9.316450119018555
      ],
      [
        "cket",
        -9.319517135620117
      ],
      [
        "controllers",
        -9.321479797363281
      ],
      [
        "▁invalidation",
        -9.322212219238281
      ],
      [
        "ul",
        -9.325418472290039
      ],
      [
        "▁mod",
        -9.32684326171875
      ],
      [
        "▁proper",
        -9.328263282775879
      ],
      [
        "▁doc",
        -9.328944206237793
      ],
      [
        "stic",
        -9.331703186035156
      ],
      [
        "co",
        -9.3335599899292
      ],
      [
        "▁dis",
        -9.33874225616455
      ],
      [
        "ext",
        -9.339512825012207
      ],
      [
        "neo",
        -9.341504096984863
      ],
      [
        "ject",
        -9.34175968170166
      ],
      [
        "▁zero",
        -9.342537879943848
      ],
      [
        "afe",
        -9.344426155090332
      ],
      [
        "▁headers",
        -9.345816612243652
      ],
      [
        "environments",
        -9.346359252929688
      ],
      [
        "dashboards",
        -9.347599029541016
      ],
      [
        "ference",
        -9.348188400268555
      ],
      [
        "▁circu",
        -9.34990406036377
      ],
      [
        "ele",
        -9.351302146911621
      ],
      [
        "gressi",
        -9.351423263549805
      ],
      [
        "sets",
        -9.351898193359375
      ],
      [
        "▁collaborati",
        -9.352866172790527
      ],
      [
        "load",
        -9.353034019470215
      ],
      [
        "dependencies",
        -9.353485107421875
      ],
      [
        "mit",
        -9.353736877441406
      ],
      [
        "▁percentage",
        -9.35658073425293
      ],
      [
        "▁pipeline",
        -9.358959197998047
      ],
      [
        "▁assertion",
        -9.359562873840332
      ],
      [
        "▁session",
        -9.359611511230469
      ],
      [
        "ccess",
        -9.360139846801758
      ],
      [
        "prisma",
        -9.361674308776855
      ],
      [
        "lar",
        -9.362229347229004
      ],
      [
        "timeout",
        -9.36330509185791
      ],
      [
        "▁*",
        -9.366951942443848
      ],
      [
        "desk",
        -9.367156028747559
      ],
      [
        "▁cleanup",
        -9.367424011230469
      ],
      [
        "▁hea",
        -9.369321823120117
      ],
      [
        "are",
        -9.370942115783691
      ],
      [
        "bastion",
        -9.371365547180176
      ],
      [
        "▁id",
        -9.372688293457031
      ],
      [
        "▁versioning",
        -9.373847007751465
      ],
      [
        "▁out",
        -9.37617015838623
      ],
      [
        "redi",
        -9.376683235168457
      ],
      [
        "▁message",
        -9.377642631530762
      ],
      [
        "QL",
        -9.379444122314453
      ],
      [
        "pu",
        -9.381082534790039
      ],
      [
        "ub",
        -9.381799697875977
      ],
      [
        "raph",
        -9.381821632385254
      ],
      [
        "▁schedule",
        -9.381953239440918
      ],
      [
        "sf",
        -9.383903503417969
      ],
      [
        "execut",
        -9.38420295715332
      ],
      [
        "▁timezone",
        -9.384506225585938
      ],
      [
        "rometheus",
        -9.384649276733398
      ],
      [
        "tests",
        -9.38537311553955
      ],
      [
        "streaming",
        -9.385672569274902
      ],
      [
        "▁auto",
        -9.388339042663574
      ],
      [
        "deadlock",
        -9.38987922668457
      ],
      [
        "▁st",
        -9.392017364501953
      ],
      [
        "▁ope",
        -9.392463684082031
      ],
      [
        "rations",
        -9.396105766296387
      ],
      [
        "ker",
        -9.39641284942627
      ],
      [
        "torch",
        -9.396413803100586
      ],
      [
        "▁uni",
        -9.396854400634766
      ],
      [
        "real",
        -9.397470474243164
      ],
      [
        "▁http",
        -9.398492813110352
      ],
      [
        "back",
        -9.398616790771484
      ],
      [
        "▁detection",
        -9.400711059570312
      ],
      [
        "yu",
        -9.402599334716797
      ],
      [
        "▁leak",
        -9.403066635131836
      ],
      [
        "▁tracing",
        -9.407470703125
      ],
      [
        "ful",
        -9.40860652923584
      ],
      [
        "inventory",
        -9.4102783203125
      ],
      [
        "awa",
        -9.411026000976562
      ],
      [
        "▁schema",
        -9.413681030273438
      ],
      [
        "pc",
        -9.414677619934082
      ],
      [
        "dg",
        -9.415438652038574
      ],
      [
        "download",
        -9.41545581817627
      ],
      [
        "reference",
        -9.415874481201172
      ],
      [
        "lic",
        -9.416207313537598
      ],
      [
        "grou",
        -9.417765617370605
      ],
      [
        "▁mi",
        -9.418844223022461
      ],
      [
        "roller",
        -9.420989990234375
      ],
      [
        "clee",
        -9.421183586120605
      ],
      [
        "TP",
        -9.423477172851562
      ],
      [
        "▁monolith",
        -9.423528671264648
      ],
      [
        "▁644",
        -9.42789363861084
      ],
      [
        "priya",
        -9.428315162658691
      ],
      [
        "selecti",
        -9.42832088470459
      ],
      [
        "sion",
        -9.429471015930176
      ],
      [
        "▁next",
        -9.43030834197998
      ],
      [
        "account",
        -9.431727409362793
      ],
      [
        "roll",
        -9.434320449829102
      ],
      [
        "terraform",
        -9.43679141998291
      ],
      [
        "luca",
        -9.437956809997559
      ],
      [
        "50",
        -9.438270568847656
      ],
      [
        "erp",
        -9.438772201538086
      ],
      [
        "ter",
        -9.439699172973633
      ],
      [
        "ervice",
        -9.439702033996582
      ],
      [
        "eci",
        -9.440917015075684
      ],
      [
        "ller",
        -9.445639610290527
      ],
      [
        "02",
        -9.446216583251953
      ],
      [
        "▁compl",
        -9.447288513183594
      ],
      [
        "Dockerfile",
        -9.448122024536133
      ],
      [
        "sma",
        -9.449313163757324
      ],
      [
        "▁sta",
        -9.45777416229248
      ],
      [
        "▁host",
        -9.459149360656738
      ],
      [
        "book",
        -9.461031913757324
      ],
      [
        "curr",
        -9.462129592895508
      ],
      [
        "▁600",
        -9.463431358337402
      ],
      [
        "commen",
        -9.464814186096191
      ],
      [
        "▁analytics",
        -9.466282844543457
      ],
      [
        "▁ti",
        -9.468393325805664
      ],
      [
        "▁U",
        -9.469407081604004
      ],
      [
        "22",
        -9.470162391662598
      ],
      [
        "01",
        -9.471320152282715
      ],
      [
        "scheduling",
        -9.474968910217285
      ],
      [
        "mwolf",
        -9.476645469665527
      ],
      [
        "sub",
        -9.483396530151367
      ],
      [
        "ba",
        -9.483409881591797
      ],
      [
        "pub",
        -9.483796119689941
      ],
      [
        "automati",
        -9.484016418457031
      ],
      [
        "▁types",
        -9.484407424926758
      ],
      [
        "origin",
        -9.485642433166504
      ],
      [
        "ai",
        -9.491642951965332
      ],
      [
        "24",
        -9.49609661102295
      ],
      [
        "123",
        -9.49923038482666
      ],
      [
        "▁pre",
        -9.5059175491333
      ],
      [
        "▁static",
        -9.507648468017578
      ],
      [
        "validate",
        -9.508194923400879
      ],
      [
        "ohn",
        -9.508288383483887
      ],
      [
        "25",
        -9.51089096069336
      ],
      [
        ":3000",
        -9.511384963989258
      ],
      [
        "or",
        -9.511967658996582
      ],
      [
        "node",
        -9.514396667480469
      ],
      [
        "▁setup",
        -9.519289016723633
      ],
      [
        "▁zod",
        -9.52047348022461
      ],
      [
        "30",
        -9.522917747497559
      ],
      [
        ":8080",
        -9.52446174621582
      ],
      [
        "ada",
        -9.525360107421875
      ],
      [
        "chen",
        -9.527534484863281
      ],
      [
        "ut",
        -9.52815055847168
      ],
      [
        "ete",
        -9.530266761779785
      ],
      [
        "▁generat",
        -9.533580780029297
      ],
      [
        "▁bangalore",
        -9.539446830749512
      ],
      [
        "tfvars",
        -9.539896965026855
      ],
      [
        "ucia",
        -9.54166030883789
      ],
      [
        "26",
        -9.543615341186523
      ],
      [
        "▁pyt",
        -9.543990135192871
      ],
      [
        "29",
        -9.54665470123291
      ],
      [
        "ps",
        -9.549173355102539
      ],
      [
        "▁scr",
        -9.550764083862305
      ],
      [
        "et",
        -9.550827026367188
      ],
      [
        "notification",
        -9.551569938659668
      ],
      [
        "▁pla",
        -9.553240776062012
      ],
      [
        "elena",
        -9.555188179016113
      ],
      [
        "at",
        -9.556169509887695
      ],
      [
        "help",
        -9.557147026062012
      ],
      [
        "cer",
        -9.558730125427246
      ],
      [
        "37",
        -9.561935424804688
      ],
      [
        "39",
        -9.561981201171875
      ],
      [
        "EL",
        -9.562251091003418
      ],
      [
        "35",
        -9.5639009475708
      ],
      [
        "-01:~/",
        -9.565289497375488
      ],
      [
        "32",
        -9.566579818725586
      ],
      [
        "28",
        -9.56983470916748
      ],
      [
        "23",
        -9.570694923400879
      ],
      [
        "ear",
        -9.572144508361816
      ],
      [
        "▁cla",
        -9.573019981384277
      ],
      [
        "Data",
        -9.573519706726074
      ],
      [
        "▁permission",
        -9.573683738708496
      ],
      [
        "gh",
        -9.574078559875488
      ],
      [
        "▁nyc",
        -9.578913688659668
      ],
      [
        "sam",
        -9.582817077636719
      ],
      [
        "27",
        -9.586277961730957
      ],
      [
        "pool",
        -9.587116241455078
      ],
      [
        "eader",
        -9.587410926818848
      ],
      [
        "dation",
        -9.5881986618042
      ],
      [
        "cov",
        -9.589357376098633
      ],
      [
        "▁j",
        -9.589632987976074
      ],
      [
        "bwilson",
        -9.590293884277344
      ],
      [
        "95",
        -9.590315818786621
      ],
      [
        "mflores",
        -9.595006942749023
      ],
      [
        "riley",
        -9.595006942749023
      ],
      [
        "payment",
        -9.595232009887695
      ],
      [
        "tracing",
        -9.60234546661377
      ],
      [
        "one",
        -9.603732109069824
      ],
      [
        "mpark",
        -9.604496002197266
      ],
      [
        "serializ",
        -9.605265617370605
      ],
      [
        "jordan",
        -9.608322143554688
      ],
      [
        "rib",
        -9.609709739685059
      ],
      [
        "▁london",
        -9.609891891479492
      ],
      [
        "16",
        -9.611953735351562
      ],
      [
        "agarcia",
        -9.618945121765137
      ],
      [
        "antic",
        -9.61913013458252
      ],
      [
        "ger",
        -9.621820449829102
      ],
      [
        "17",
        -9.62425422668457
      ],
      [
        "▁expir",
        -9.626729965209961
      ],
      [
        "alp",
        -9.626965522766113
      ],
      [
        "ner",
        -9.627635955810547
      ],
      [
        "ha",
        -9.627641677856445
      ],
      [
        "tri",
        -9.628135681152344
      ],
      [
        "noor",
        -9.628939628601074
      ],
      [
        "▁di",
        -9.629444122314453
      ],
      [
        "▁resize",
        -9.630528450012207
      ],
      [
        "nel",
        -9.632770538330078
      ],
      [
        "21",
        -9.632855415344238
      ],
      [
        "31",
        -9.633137702941895
      ],
      [
        "▁shi",
        -9.633841514587402
      ],
      [
        "chan",
        -9.634467124938965
      ],
      [
        "orm",
        -9.634666442871094
      ],
      [
        "B",
        -9.635458946228027
      ],
      [
        "off",
        -9.638147354125977
      ],
      [
        "P",
        -9.642358779907227
      ],
      [
        "▁cur",
        -9.642416954040527
      ],
      [
        "20-",
        -9.642708778381348
      ],
      [
        "19",
        -9.643341064453125
      ],
      [
        "round",
        -9.643709182739258
      ],
      [
        "36",
        -9.644255638122559
      ],
      [
        "ternal",
        -9.645265579223633
      ],
      [
        "▁trac",
        -9.646841049194336
      ],
      [
        "gger",
        -9.648820877075195
      ],
      [
        "low",
        -9.651870727539062
      ],
      [
        "csv",
        -9.653386116027832
      ],
      [
        "▁product",
        -9.653973579406738
      ],
      [
        "sor",
        -9.654358863830566
      ],
      [
        "rsingh",
        -9.654388427734375
      ],
      [
        "▁40",
        -9.655478477478027
      ],
      [
        "▁inventory",
        -9.6561279296875
      ],
      [
        "▁be",
        -9.657007217407227
      ],
      [
        "hosts",
        -9.658374786376953
      ],
      [
        "ush",
        -9.661299705505371
      ],
      [
        "ize",
        -9.661921501159668
      ],
      [
        "▁notification",
        -9.662150382995605
      ],
      [
        "tal",
        -9.662273406982422
      ],
      [
        "▁temp",
        -9.66242790222168
      ],
      [
        "▁serializ",
        -9.662714004516602
      ],
      [
        "ight",
        -9.663445472717285
      ],
      [
        "kai",
        -9.663453102111816
      ],
      [
        "ener",
        -9.664031028747559
      ],
      [
        "trip",
        -9.664946556091309
      ],
      [
        "▁logging",
        -9.665340423583984
      ],
      [
        "▁pref",
        -9.66615104675293
      ],
      [
        "cture",
        -9.666296005249023
      ],
      [
        "jdoe",
        -9.667479515075684
      ],
      [
        "quinn",
        -9.66748046875
      ],
      [
        "arch",
        -9.667648315429688
      ],
      [
        "nding",
        -9.669448852539062
      ],
      [
        "ities",
        -9.670008659362793
      ],
      [
        "environment",
        -9.670336723327637
      ],
      [
        "▁flak",
        -9.670559883117676
      ],
      [
        "▁pay",
        -9.673473358154297
      ],
      [
        "evel",
        -9.673871040344238
      ],
      [
        "forme",
        -9.674072265625
      ],
      [
        "rest",
        -9.674944877624512
      ],
      [
        "evaluation",
        -9.675636291503906
      ],
      [
        "ies",
        -9.675951957702637
      ],
      [
        "▁subscription",
        -9.6763277053833
      ],
      [
        "▁submi",
        -9.676765441894531
      ],
      [
        "stri",
        -9.677095413208008
      ],
      [
        "content",
        -9.678889274597168
      ],
      [
        "sso",
        -9.680188179016113
      ],
      [
        "age",
        -9.68028736114502
      ],
      [
        "rafana",
        -9.680635452270508
      ],
      [
        "▁D",
        -9.681282997131348
      ],
      [
        "vide",
        -9.681894302368164
      ],
      [
        "ffec",
        -9.682172775268555
      ],
      [
        "▁tra",
        -9.682682037353516
      ],
      [
        "▁inter",
        -9.682832717895508
      ],
      [
        "control",
        -9.682835578918457
      ],
      [
        "archive",
        -9.683283805847168
      ],
      [
        "▁transi",
        -9.683839797973633
      ],
      [
        "Depend",
        -9.683865547180176
      ],
      [
        "▁hi",
        -9.684481620788574
      ],
      [
        "2.0",
        -9.685637474060059
      ],
      [
        "remy",
        -9.685654640197754
      ],
      [
        "row",
        -9.686396598815918
      ],
      [
        "move",
        -9.687176704406738
      ],
      [
        "taylor",
        -9.689043998718262
      ],
      [
        "aster",
        -9.689116477966309
      ],
      [
        "▁bran",
        -9.689607620239258
      ],
      [
        "▁querie",
        -9.691139221191406
      ],
      [
        "ty",
        -9.692139625549316
      ],
      [
        "gic",
        -9.693483352661133
      ],
      [
        "▁clo",
        -9.694210052490234
      ],
      [
        "▁header",
        -9.694357872009277
      ],
      [
        "write",
        -9.694438934326172
      ],
      [
        "alization",
        -9.695855140686035
      ],
      [
        "▁ca",
        -9.696382522583008
      ],
      [
        "iso",
        -9.697335243225098
      ],
      [
        "feed",
        -9.698110580444336
      ],
      [
        "▁fl",
        -9.699295997619629
      ],
      [
        "▁lin",
        -9.69941234588623
      ],
      [
        "ice",
        -9.7001371383667
      ],
      [
        "net",
        -9.700759887695312
      ],
      [
        "factor",
        -9.701452255249023
      ],
      [
        "requ",
        -9.701567649841309
      ],
      [
        "two",
        -9.702651023864746
      ],
      [
        "▁ma",
        -9.702668190002441
      ],
      [
        "ated",
        -9.702961921691895
      ],
      [
        "alize",
        -9.70304012298584
      ],
      [
        "dependen",
        -9.70348834991455
      ],
      [
        "▁Docker",
        -9.704418182373047
      ],
      [
        "values",
        -9.704732894897461
      ],
      [
        "yusuf",
        -9.705787658691406
      ],
      [
        "▁TO",
        -9.705960273742676
      ],
      [
        "usin",
        -9.706679344177246
      ],
      [
        "bert",
        -9.70736312866211
      ],
      [
        "▁mo",
        -9.707900047302246
      ],
      [
        "▁stor",
        -9.71109676361084
      ],
      [
        "ific",
        -9.711956024169922
      ],
      [
        "▁help",
        -9.712821960449219
      ],
      [
        "lling",
        -9.713522911071777
      ],
      [
        "▁hand",
        -9.713534355163574
      ],
      [
        "rement",
        -9.714608192443848
      ],
      [
        "lk",
        -9.715901374816895
      ],
      [
        "▁fin",
        -9.716663360595703
      ],
      [
        "eps",
        -9.717259407043457
      ],
      [
        "▁RE",
        -9.717549324035645
      ],
      [
        "▁pro",
        -9.721109390258789
      ],
      [
        "ans",
        -9.72130298614502
      ],
      [
        "oader",
        -9.721321105957031
      ],
      [
        "5000",
        -9.721757888793945
      ],
      [
        "preprocess",
        -9.721799850463867
      ],
      [
        "▁coverage",
        -9.722818374633789
      ],
      [
        "ism",
        -9.722949028015137
      ],
      [
        "▁abc",
        -9.724104881286621
      ],
      [
        "▁ea",
        -9.725878715515137
      ],
      [
        "finetune",
        -9.72819995880127
      ],
      [
        "full",
        -9.729751586914062
      ],
      [
        "ol",
        -9.731668472290039
      ],
      [
        "ux",
        -9.731898307800293
      ],
      [
        "▁paginat",
        -9.732223510742188
      ],
      [
        "▁Red",
        -9.735006332397461
      ],
      [
        "▁rel",
        -9.736061096191406
      ],
      [
        "Store",
        -9.7379732131958
      ],
      [
        "pris",
        -9.739387512207031
      ],
      [
        "ssing",
        -9.741864204406738
      ],
      [
        "ll",
        -9.742587089538574
      ],
      [
        "▁templates",
        -9.74283218383789
      ],
      [
        "board",
        -9.743389129638672
      ],
      [
        "james",
        -9.744523048400879
      ],
      [
        "fa",
        -9.748157501220703
      ],
      [
        "tent",
        -9.748615264892578
      ],
      [
        "trans",
        -9.749811172485352
      ],
      [
        "leo",
        -9.750105857849121
      ],
      [
        "▁chan",
        -9.750955581665039
      ],
      [
        "comm",
        -9.752870559692383
      ],
      [
        "input",
        -9.75295352935791
      ],
      [
        "reese",
        -9.753341674804688
      ],
      [
        "▁hooks",
        -9.755609512329102
      ],
      [
        "engineering",
        -9.756671905517578
      ],
      [
        "ded",
        -9.759075164794922
      ],
      [
        "▁rate",
        -9.760239601135254
      ],
      [
        "▁output",
        -9.760882377624512
      ],
      [
        "pha",
        -9.761088371276855
      ],
      [
        "▁sp",
        -9.761370658874512
      ],
      [
        "kuro",
        -9.76223373413086
      ],
      [
        "fic",
        -9.764720916748047
      ],
      [
        "theo",
        -9.765033721923828
      ],
      [
        "ging",
        -9.765199661254883
      ],
      [
        "▁exp",
        -9.765634536743164
      ],
      [
        "ug",
        -9.771491050720215
      ],
      [
        "itest",
        -9.77658748626709
      ],
      [
        "ft",
        -9.77878475189209
      ],
      [
        "40",
        -9.7801513671875
      ],
      [
        "nder",
        -9.78082275390625
      ],
      [
        "TT",
        -9.785049438476562
      ],
      [
        "▁bin",
        -9.785232543945312
      ],
      [
        "33",
        -9.785856246948242
      ],
      [
        "ain",
        -9.786457061767578
      ],
      [
        "diego",
        -9.788321495056152
      ],
      [
        "testing",
        -9.791836738586426
      ],
      [
        "zia",
        -9.792872428894043
      ],
      [
        "ipp",
        -9.793210983276367
      ],
      [
        "sarah",
        -9.793996810913086
      ],
      [
        "reload",
        -9.796133041381836
      ],
      [
        "bi",
        -9.797722816467285
      ],
      [
        "transformer",
        -9.799050331115723
      ],
      [
        "dkim",
        -9.800939559936523
      ],
      [
        "ution",
        -9.801029205322266
      ],
      [
        "tables",
        -9.801298141479492
      ],
      [
        "▁per",
        -9.801669120788574
      ],
      [
        "notifications",
        -9.807053565979004
      ],
      [
        "▁back",
        -9.807255744934082
      ],
      [
        "avery",
        -9.807710647583008
      ],
      [
        "fo",
        -9.808570861816406
      ],
      [
        "alex",
        -9.809148788452148
      ],
      [
        "▁8000",
        -9.81379222869873
      ],
      [
        "vince",
        -9.817578315734863
      ],
      [
        "▁ven",
        -9.822142601013184
      ],
      [
        "▁dr",
        -9.822857856750488
      ],
      [
        "▁Bu",
        -9.823026657104492
      ],
      [
        "-8",
        -9.825374603271484
      ],
      [
        "▁of",
        -9.826090812683105
      ],
      [
        "aa",
        -9.828433990478516
      ],
      [
        "maria",
        -9.836383819580078
      ],
      [
        "sage",
        -9.840110778808594
      ],
      [
        "abc",
        -9.840866088867188
      ],
      [
        "bangalore",
        -9.844198226928711
      ],
      [
        "lars",
        -9.84597396850586
      ],
      [
        "38",
        -9.84727668762207
      ],
      [
        "tlee",
        -9.850964546203613
      ],
      [
        "▁use",
        -9.85100269317627
      ],
      [
        "london",
        -9.859956741333008
      ],
      [
        "sami",
        -9.863795280456543
      ],
      [
        "iting",
        -9.866785049438477
      ],
      [
        "overlays",
        -9.86815071105957
      ],
      [
        "res",
        -9.868170738220215
      ],
      [
        "zyang",
        -9.870635032653809
      ],
      [
        "ks",
        -9.874293327331543
      ],
      [
        "▁fail",
        -9.875000953674316
      ],
      [
        "▁outdated",
        -9.876879692077637
      ],
      [
        "process",
        -9.878262519836426
      ],
      [
        "ar",
        -9.883742332458496
      ],
      [
        "luke",
        -9.886947631835938
      ],
      [
        "air",
        -9.889357566833496
      ],
      [
        "exception",
        -9.889481544494629
      ],
      [
        "▁cha",
        -9.89026165008545
      ],
      [
        "nyc",
        -9.89229965209961
      ],
      [
        "dep",
        -9.896265029907227
      ],
      [
        "react",
        -9.89813232421875
      ],
      [
        "ettings",
        -9.899555206298828
      ],
      [
        "▁cle",
        -9.909628868103027
      ],
      [
        "deployment",
        -9.910731315612793
      ],
      [
        "=0",
        -9.910747528076172
      ],
      [
        "ency",
        -9.913758277893066
      ],
      [
        "enovak",
        -9.91556453704834
      ],
      [
        "eda",
        -9.915838241577148
      ],
      [
        "nalytics",
        -9.920866012573242
      ],
      [
        "▁apply",
        -9.93896198272705
      ],
      [
        "46",
        -9.938972473144531
      ],
      [
        "▁result",
        -9.940484046936035
      ],
      [
        "▁compa",
        -9.949796676635742
      ],
      [
        "44",
        -9.950481414794922
      ],
      [
        "robin",
        -9.950974464416504
      ],
      [
        "ashboard",
        -9.952048301696777
      ],
      [
        "▁collect",
        -9.956348419189453
      ],
      [
        "▁8080",
        -9.956352233886719
      ],
      [
        "orker",
        -9.961346626281738
      ],
      [
        "vicorn",
        -9.962782859802246
      ],
      [
        "nput",
        -9.963644981384277
      ],
      [
        "▁inv",
        -9.969742774963379
      ],
      [
        "id",
        -9.972826957702637
      ],
      [
        "▁init",
        -9.972858428955078
      ],
      [
        "▁thre",
        -9.974345207214355
      ],
      [
        "Q",
        -9.980087280273438
      ],
      [
        "polling",
        -9.981197357177734
      ],
      [
        "arun",
        -9.982548713684082
      ],
      [
        "uery",
        -9.985078811645508
      ],
      [
        "▁handlers",
        -9.985318183898926
      ],
      [
        "morgan",
        -9.993644714355469
      ],
      [
        "▁alembic",
        -9.993644714355469
      ],
      [
        "em",
        -9.994647979736328
      ],
      [
        "over",
        -10.002212524414062
      ],
      [
        "rolle",
        -10.002477645874023
      ],
      [
        "▁architecture",
        -10.004968643188477
      ],
      [
        "sent",
        -10.00644588470459
      ],
      [
        "mia",
        -10.009654998779297
      ],
      [
        "▁par",
        -10.011272430419922
      ],
      [
        "match",
        -10.012526512145996
      ],
      [
        "▁tokyo",
        -10.013297080993652
      ],
      [
        "▁lo",
        -10.022337913513184
      ],
      [
        "▁pass",
        -10.023452758789062
      ],
      [
        "43",
        -10.02568244934082
      ],
      [
        "connect",
        -10.026089668273926
      ],
      [
        "bility",
        -10.030143737792969
      ],
      [
        "vpc",
        -10.030441284179688
      ],
      [
        "ce",
        -10.033733367919922
      ],
      [
        "backe",
        -10.035405158996582
      ],
      [
        "▁HT",
        -10.036928176879883
      ],
      [
        "▁3000",
        -10.038290977478027
      ],
      [
        "▁write",
        -10.042413711547852
      ],
      [
        "database",
        -10.04564094543457
      ],
      [
        "forms",
        -10.053114891052246
      ],
      [
        "49",
        -10.053264617919922
      ],
      [
        "migrations",
        -10.057622909545898
      ],
      [
        "ven",
        -10.058094024658203
      ],
      [
        "http",
        -10.063484191894531
      ],
      [
        "rds",
        -10.064095497131348
      ],
      [
        "▁cre",
        -10.064607620239258
      ],
      [
        "▁transit",
        -10.066062927246094
      ],
      [
        "kenji",
        -10.066615104675293
      ],
      [
        "lkim",
        -10.068145751953125
      ],
      [
        "omar",
        -10.07118034362793
      ],
      [
        "47",
        -10.071410179138184
      ],
      [
        "45",
        -10.08120059967041
      ],
      [
        "pro",
        -10.086567878723145
      ],
      [
        "▁local",
        -10.08800983428955
      ],
      [
        "ecs",
        -10.093936920166016
      ],
      [
        "output",
        -10.094576835632324
      ],
      [
        "mchen",
        -10.097362518310547
      ],
      [
        "drew",
        -10.09743595123291
      ],
      [
        "sky",
        -10.102888107299805
      ],
      [
        "nginx",
        -10.10976505279541
      ],
      [
        "checkpoints",
        -10.10993766784668
      ],
      [
        "rder",
        -10.112590789794922
      ],
      [
        "/**/*.",
        -10.114688873291016
      ],
      [
        "rwang",
        -10.114690780639648
      ],
      [
        "▁pytorch",
        -10.1155424118042
      ],
      [
        "jax",
        -10.117870330810547
      ],
      [
        "setup",
        -10.118304252624512
      ],
      [
        "48",
        -10.118638038635254
      ],
      [
        "nova",
        -10.124868392944336
      ],
      [
        "▁lock",
        -10.128292083740234
      ],
      [
        "imit",
        -10.128663063049316
      ],
      [
        "zara",
        -10.13070297241211
      ],
      [
        "▁ve",
        -10.132822036743164
      ],
      [
        "HE",
        -10.13824462890625
      ],
      [
        "blake",
        -10.13880729675293
      ],
      [
        "8.8.8",
        -10.143717765808105
      ],
      [
        "▁integration",
        -10.147815704345703
      ],
      [
        "roles",
        -10.148279190063477
      ],
      [
        "41",
        -10.151912689208984
      ],
      [
        "nu",
        -10.158462524414062
      ],
      [
        "gle",
        -10.15890884399414
      ],
      [
        "ables",
        -10.163836479187012
      ],
      [
        "fatima",
        -10.171892166137695
      ],
      [
        "60",
        -10.181238174438477
      ],
      [
        "pat",
        -10.201825141906738
      ],
      [
        "79",
        -10.202751159667969
      ],
      [
        "useD",
        -10.203409194946289
      ],
      [
        "dge",
        -10.210899353027344
      ],
      [
        "UT",
        -10.21231460571289
      ],
      [
        "42",
        -10.213743209838867
      ],
      [
        "70",
        -10.216802597045898
      ],
      [
        "mjs",
        -10.222834587097168
      ],
      [
        "be",
        -10.223421096801758
      ],
      [
        "-48",
        -10.224534034729004
      ],
      [
        "tunde",
        -10.225454330444336
      ],
      [
        "ization",
        -10.226405143737793
      ],
      [
        "ustom",
        -10.227124214172363
      ],
      [
        "▁notebook",
        -10.22755241394043
      ],
      [
        "generate",
        -10.233136177062988
      ],
      [
        "ogin",
        -10.240706443786621
      ],
      [
        "press",
        -10.241373062133789
      ],
      [
        "https",
        -10.243224143981934
      ],
      [
        "ff",
        -10.244985580444336
      ],
      [
        ":5000",
        -10.245068550109863
      ],
      [
        "-45",
        -10.24702262878418
      ],
      [
        "ash",
        -10.250157356262207
      ],
      [
        "80",
        -10.254769325256348
      ],
      [
        "duplicat",
        -10.256389617919922
      ],
      [
        "ezra",
        -10.26158332824707
      ],
      [
        "cor",
        -10.262539863586426
      ],
      [
        "miles",
        -10.263426780700684
      ],
      [
        "new",
        -10.264487266540527
      ],
      [
        "▁cl",
        -10.267776489257812
      ],
      [
        "-9",
        -10.272565841674805
      ],
      [
        "vim",
        -10.28476333618164
      ],
      [
        "▁key",
        -10.289750099182129
      ],
      [
        "▁al",
        -10.291460990905762
      ],
      [
        "anya",
        -10.291481971740723
      ],
      [
        "67",
        -10.291888236999512
      ],
      [
        "sol",
        -10.292295455932617
      ],
      [
        "lint",
        -10.293965339660645
      ],
      [
        "regist",
        -10.294918060302734
      ],
      [
        "-47",
        -10.297839164733887
      ],
      [
        "55",
        -10.301909446716309
      ],
      [
        "54",
        -10.30383014678955
      ],
      [
        "late",
        -10.306418418884277
      ],
      [
        "▁lab",
        -10.308338165283203
      ],
      [
        "▁messaging",
        -10.31092357635498
      ],
      [
        "hell",
        -10.310991287231445
      ],
      [
        "ify",
        -10.312581062316895
      ],
      [
        "ort",
        -10.31872844696045
      ],
      [
        "68",
        -10.321887969970703
      ],
      [
        "-42",
        -10.322999954223633
      ],
      [
        "resize",
        -10.327686309814453
      ],
      [
        "75",
        -10.328818321228027
      ],
      [
        "okoye",
        -10.338030815124512
      ],
      [
        "tokyo",
        -10.346353530883789
      ],
      [
        "74",
        -10.348649024963379
      ],
      [
        "ide",
        -10.349732398986816
      ],
      [
        "subscription",
        -10.350676536560059
      ],
      [
        "-46",
        -10.352832794189453
      ],
      [
        "embed",
        -10.354055404663086
      ],
      [
        "htan",
        -10.35467529296875
      ],
      [
        "deba",
        -10.355406761169434
      ],
      [
        "af",
        -10.355417251586914
      ],
      [
        "87",
        -10.356843948364258
      ],
      [
        "rip",
        -10.358175277709961
      ],
      [
        "-43",
        -10.364052772521973
      ],
      [
        "uri",
        -10.366291046142578
      ],
      [
        "ae",
        -10.369610786437988
      ],
      [
        "ac",
        -10.36996841430664
      ],
      [
        "▁*.",
        -10.37166976928711
      ],
      [
        "resolv",
        -10.372199058532715
      ],
      [
        "stan",
        -10.375773429870605
      ],
      [
        "/*.",
        -10.377730369567871
      ],
      [
        "97",
        -10.379265785217285
      ],
      [
        "73",
        -10.38683795928955
      ],
      [
        "69",
        -10.389808654785156
      ],
      [
        "felix",
        -10.391050338745117
      ],
      [
        "57",
        -10.392911911010742
      ],
      [
        "-49",
        -10.393065452575684
      ],
      [
        "89",
        -10.398676872253418
      ],
      [
        "64",
        -10.401748657226562
      ],
      [
        "und",
        -10.403340339660645
      ],
      [
        "udio",
        -10.412001609802246
      ],
      [
        "scripts",
        -10.412948608398438
      ],
      [
        "lse",
        -10.416953086853027
      ],
      [
        "62",
        -10.424049377441406
      ],
      [
        "chris",
        -10.427976608276367
      ],
      [
        "94",
        -10.42845630645752
      ],
      [
        "82",
        -10.4299898147583
      ],
      [
        "▁migrations",
        -10.431007385253906
      ],
      [
        "dpatel",
        -10.431653022766113
      ],
      [
        "pt",
        -10.438647270202637
      ],
      [
        "84",
        -10.442096710205078
      ],
      [
        "force",
        -10.448606491088867
      ],
      [
        "65",
        -10.448895454406738
      ],
      [
        "77",
        -10.450540542602539
      ],
      [
        "alert",
        -10.453813552856445
      ],
      [
        "85",
        -10.457780838012695
      ],
      [
        "59",
        -10.462397575378418
      ],
      [
        "-41",
        -10.463324546813965
      ],
      [
        "bu",
        -10.466832160949707
      ],
      [
        "con",
        -10.471588134765625
      ],
      [
        "ea",
        -10.471978187561035
      ],
      [
        "72",
        -10.47474193572998
      ],
      [
        "static",
        -10.47475528717041
      ],
      [
        "harper",
        -10.476714134216309
      ],
      [
        "88",
        -10.48322868347168
      ],
      [
        "96",
        -10.485480308532715
      ],
      [
        "86",
        -10.485777854919434
      ],
      [
        "finn",
        -10.489585876464844
      ],
      [
        "wright",
        -10.490042686462402
      ],
      [
        "pon",
        -10.49012565612793
      ],
      [
        "cou",
        -10.490744590759277
      ],
      [
        "raj",
        -10.492348670959473
      ],
      [
        "ong",
        -10.493693351745605
      ],
      [
        "▁fastapi",
        -10.493825912475586
      ],
      [
        "▁60",
        -10.495599746704102
      ],
      [
        "52",
        -10.4956693649292
      ],
      [
        "92",
        -10.496562957763672
      ],
      [
        "watch",
        -10.497124671936035
      ],
      [
        "78",
        -10.497271537780762
      ],
      [
        "8.",
        -10.498440742492676
      ],
      [
        "casey",
        -10.499322891235352
      ],
      [
        "76",
        -10.5030517578125
      ],
      [
        "1.22",
        -10.50314712524414
      ],
      [
        "ris",
        -10.504507064819336
      ],
      [
        "66",
        -10.504642486572266
      ],
      [
        "61",
        -10.505206108093262
      ],
      [
        "▁fd",
        -10.506784439086914
      ],
      [
        "play",
        -10.507383346557617
      ],
      [
        "63",
        -10.513622283935547
      ],
      [
        "iris",
        -10.51669692993164
      ],
      [
        "▁transformers",
        -10.519658088684082
      ],
      [
        "template",
        -10.524900436401367
      ],
      [
        "ca",
        -10.52559757232666
      ],
      [
        "bc",
        -10.52780818939209
      ],
      [
        "nina",
        -10.530139923095703
      ],
      [
        "ef",
        -10.53410530090332
      ],
      [
        "▁bench",
        -10.534948348999023
      ],
      [
        "71",
        -10.535146713256836
      ],
      [
        "vite",
        -10.537439346313477
      ],
      [
        "58",
        -10.541160583496094
      ],
      [
        "▁performance",
        -10.542238235473633
      ],
      [
        "81",
        -10.55316162109375
      ],
      [
        "dis",
        -10.55329704284668
      ],
      [
        "▁bl",
        -10.554549217224121
      ],
      [
        "ipt",
        -10.554697036743164
      ],
      [
        "cert",
        -10.556371688842773
      ],
      [
        "90",
        -10.55884075164795
      ],
      [
        "bf",
        -10.559929847717285
      ],
      [
        "-40",
        -10.560150146484375
      ],
      [
        "99",
        -10.560338020324707
      ],
      [
        "▁depend",
        -10.565279960632324
      ],
      [
        "ral",
        -10.569252967834473
      ],
      [
        "senti",
        -10.571950912475586
      ],
      [
        "apps",
        -10.574862480163574
      ],
      [
        "ad",
        -10.576423645019531
      ],
      [
        "enda",
        -10.576811790466309
      ],
      [
        "▁400",
        -10.577717781066895
      ],
      [
        "51",
        -10.58117961883545
      ],
      [
        "98",
        -10.581209182739258
      ],
      [
        "▁not",
        -10.584641456604004
      ],
      [
        "registry",
        -10.586404800415039
      ],
      [
        "achi",
        -10.58985424041748
      ],
      [
        "▁70",
        -10.592514038085938
      ],
      [
        "sign",
        -10.593506813049316
      ],
      [
        "metric",
        -10.59841251373291
      ],
      [
        "tb",
        -10.59847354888916
      ],
      [
        "org",
        -10.599899291992188
      ],
      [
        "ature",
        -10.600400924682617
      ],
      [
        "stream",
        -10.60076904296875
      ],
      [
        "aga",
        -10.602590560913086
      ],
      [
        "patch",
        -10.603679656982422
      ],
      [
        "▁prop",
        -10.60659122467041
      ],
      [
        "ugg",
        -10.610713958740234
      ],
      [
        "thu",
        -10.615066528320312
      ],
      [
        "91",
        -10.618186950683594
      ],
      [
        "rea",
        -10.62004566192627
      ],
      [
        "bb",
        -10.622969627380371
      ],
      [
        "93",
        -10.62507152557373
      ],
      [
        "encoding",
        -10.626046180725098
      ],
      [
        "-44",
        -10.628545761108398
      ],
      [
        "▁mis",
        -10.628822326660156
      ],
      [
        "ee",
        -10.637413024902344
      ],
      [
        "▁ne",
        -10.6383638381958
      ],
      [
        "done",
        -10.640007972717285
      ],
      [
        "point",
        -10.641221046447754
      ],
      [
        "ependencies",
        -10.641758918762207
      ],
      [
        "forecast",
        -10.642065048217773
      ],
      [
        "matrix",
        -10.642069816589355
      ],
      [
        "sert",
        -10.644781112670898
      ],
      [
        "very",
        -10.650206565856934
      ],
      [
        "ators",
        -10.650211334228516
      ],
      [
        "▁evaluat",
        -10.650372505187988
      ],
      [
        "routin",
        -10.650883674621582
      ],
      [
        "▁sel",
        -10.652929306030273
      ],
      [
        "script",
        -10.653268814086914
      ],
      [
        "ran",
        -10.655372619628906
      ],
      [
        "▁version",
        -10.655508995056152
      ],
      [
        "rra",
        -10.656242370605469
      ],
      [
        "wis",
        -10.656307220458984
      ],
      [
        "cal",
        -10.656538963317871
      ],
      [
        "table",
        -10.662976264953613
      ],
      [
        "activ",
        -10.663838386535645
      ],
      [
        "journal",
        -10.665560722351074
      ],
      [
        "push",
        -10.666218757629395
      ],
      [
        "tial",
        -10.66934871673584
      ],
      [
        "sco",
        -10.670543670654297
      ],
      [
        "cro",
        -10.674101829528809
      ],
      [
        "irc",
        -10.674294471740723
      ],
      [
        "ggre",
        -10.674585342407227
      ],
      [
        "refer",
        -10.675247192382812
      ],
      [
        "▁template",
        -10.67531681060791
      ],
      [
        "diff",
        -10.675868034362793
      ],
      [
        "mpo",
        -10.682340621948242
      ],
      [
        "disco",
        -10.684637069702148
      ],
      [
        "rizzle",
        -10.691333770751953
      ],
      [
        "dri",
        -10.691695213317871
      ],
      [
        "li",
        -10.692176818847656
      ],
      [
        "83",
        -10.69420337677002
      ],
      [
        "erialize",
        -10.694740295410156
      ],
      [
        "snapshot",
        -10.695785522460938
      ],
      [
        "enova",
        -10.698488235473633
      ],
      [
        "100",
        -10.699030876159668
      ],
      [
        "sition",
        -10.699082374572754
      ],
      [
        "end",
        -10.703612327575684
      ],
      [
        "▁snapshot",
        -10.704741477966309
      ],
      [
        "exa",
        -10.706426620483398
      ],
      [
        "ote",
        -10.707809448242188
      ],
      [
        "ob",
        -10.70783519744873
      ],
      [
        "rtb",
        -10.710009574890137
      ],
      [
        "eat",
        -10.715374946594238
      ],
      [
        "▁ac",
        -10.7158842086792
      ],
      [
        "ref",
        -10.717874526977539
      ],
      [
        "nal",
        -10.721424102783203
      ],
      [
        "▁en",
        -10.724663734436035
      ],
      [
        "ence",
        -10.726274490356445
      ],
      [
        "aker",
        -10.726479530334473
      ],
      [
        "▁resi",
        -10.726556777954102
      ],
      [
        "tripe",
        -10.726560592651367
      ],
      [
        "ivate",
        -10.729196548461914
      ],
      [
        "audit",
        -10.730005264282227
      ],
      [
        "routing",
        -10.731605529785156
      ],
      [
        "▁5000",
        -10.732818603515625
      ],
      [
        "ialization",
        -10.737321853637695
      ],
      [
        "fd",
        -10.739215850830078
      ],
      [
        "region",
        -10.740800857543945
      ],
      [
        "car",
        -10.744123458862305
      ],
      [
        "green",
        -10.74515438079834
      ],
      [
        "▁integ",
        -10.74582576751709
      ],
      [
        "ec",
        -10.746511459350586
      ],
      [
        "lat",
        -10.74710464477539
      ],
      [
        "fe",
        -10.74744701385498
      ],
      [
        "▁mat",
        -10.749433517456055
      ],
      [
        "▁public",
        -10.749992370605469
      ],
      [
        "▁rest",
        -10.758565902709961
      ],
      [
        "ports",
        -10.761062622070312
      ],
      [
        "▁ad",
        -10.762332916259766
      ],
      [
        "▁met",
        -10.766989707946777
      ],
      [
        "fi",
        -10.76895809173584
      ],
      [
        "tern",
        -10.770781517028809
      ],
      [
        "cf",
        -10.772350311279297
      ],
      [
        "stag",
        -10.77588939666748
      ],
      [
        "fc",
        -10.777703285217285
      ],
      [
        "ild",
        -10.780889511108398
      ],
      [
        "20",
        -10.78127670288086
      ],
      [
        "▁ide",
        -10.789376258850098
      ],
      [
        "cc",
        -10.7959566116333
      ],
      [
        "mon",
        -10.808456420898438
      ],
      [
        "nsiti",
        -10.81191349029541
      ],
      [
        "00",
        -10.81502914428711
      ],
      [
        "▁component",
        -10.815229415893555
      ],
      [
        "fb",
        -10.817163467407227
      ],
      [
        "▁enc",
        -10.817795753479004
      ],
      [
        "responsi",
        -10.827638626098633
      ],
      [
        "image",
        -10.829620361328125
      ],
      [
        "aba",
        -10.830597877502441
      ],
      [
        "ta",
        -10.835838317871094
      ],
      [
        "▁process",
        -10.839127540588379
      ],
      [
        "ption",
        -10.844695091247559
      ],
      [
        "ew",
        -10.847893714904785
      ],
      [
        "▁pat",
        -10.851624488830566
      ],
      [
        "cd",
        -10.860832214355469
      ],
      [
        "▁conf",
        -10.864500045776367
      ],
      [
        "53",
        -10.870224952697754
      ],
      [
        "5000/",
        -10.884064674377441
      ],
      [
        "▁end",
        -10.899847030639648
      ],
      [
        "checkout",
        -10.909501075744629
      ],
      [
        "ser",
        -10.920817375183105
      ],
      [
        "de",
        -10.923869132995605
      ],
      [
        "auto",
        -10.947219848632812
      ],
      [
        "ndon",
        -10.950096130371094
      ],
      [
        "▁red",
        -10.957472801208496
      ],
      [
        "gra",
        -10.966828346252441
      ],
      [
        "ie",
        -10.991571426391602
      ],
      [
        "-38",
        -11.008481979370117
      ],
      [
        "cb",
        -11.008890151977539
      ],
      [
        "prom",
        -11.0145845413208
      ],
      [
        "asset",
        -11.02397346496582
      ],
      [
        "achin",
        -11.028244018554688
      ],
      [
        "▁deps",
        -11.040339469909668
      ],
      [
        "09",
        -11.046127319335938
      ],
      [
        "rove",
        -11.048236846923828
      ],
      [
        "▁at",
        -11.06631851196289
      ],
      [
        "08",
        -11.080218315124512
      ],
      [
        "07",
        -11.11340045928955
      ],
      [
        "his",
        -11.13177490234375
      ],
      [
        "ece",
        -11.135791778564453
      ],
      [
        "▁100",
        -11.149467468261719
      ],
      [
        "04",
        -11.156238555908203
      ],
      [
        "ink",
        -11.166295051574707
      ],
      [
        "9-",
        -11.172760009765625
      ],
      [
        "06",
        -11.187666893005371
      ],
      [
        "▁docs",
        -11.22232437133789
      ],
      [
        "css",
        -11.224150657653809
      ],
      [
        "-02:/",
        -11.239029884338379
      ],
      [
        "tan",
        -11.281599044799805
      ],
      [
        "05",
        -11.284791946411133
      ],
      [
        "7-",
        -11.288798332214355
      ],
      [
        "▁ho",
        -11.300551414489746
      ],
      [
        "vi",
        -11.312806129455566
      ],
      [
        "5-",
        -11.330818176269531
      ],
      [
        "▁registry",
        -11.33891487121582
      ],
      [
        "0-",
        -11.347125053405762
      ],
      [
        "frame",
        -11.347869873046875
      ],
      [
        "▁ai",
        -11.356351852416992
      ],
      [
        "io",
        -11.363972663879395
      ],
      [
        "4-",
        -11.373690605163574
      ],
      [
        "03",
        -11.40037727355957
      ],
      [
        "playbook",
        -11.404784202575684
      ],
      [
        "▁dja",
        -11.428317070007324
      ],
      [
        "6-",
        -11.527100563049316
      ],
      [
        "assets",
        -11.605032920837402
      ],
      [
        "cl",
        -11.6095552444458
      ],
      [
        "9-4",
        -11.610208511352539
      ],
      [
        "0-4",
        -11.622151374816895
      ],
      [
        "xi",
        -11.631131172180176
      ],
      [
        "-02:~/",
        -11.63162899017334
      ],
      [
        "▁experiments",
        -11.632460594177246
      ],
      [
        "4-4",
        -11.639015197753906
      ],
      [
        "processed",
        -11.664583206176758
      ],
      [
        "▁scheduler",
        -11.666719436645508
      ],
      [
        "6-4",
        -11.685098648071289
      ],
      [
        "▁kubec",
        -11.695924758911133
      ],
      [
        "2-4",
        -11.701447486877441
      ],
      [
        "@1",
        -11.705289840698242
      ],
      [
        "5-4",
        -11.714003562927246
      ],
      [
        "▁descri",
        -11.714054107666016
      ],
      [
        "interim",
        -11.72730541229248
      ],
      [
        "styles",
        -11.738991737365723
      ],
      [
        "lease",
        -11.750229835510254
      ],
      [
        "1-4",
        -11.788026809692383
      ],
      [
        "▁pandas",
        -11.801722526550293
      ],
      [
        "-7",
        -11.802285194396973
      ],
      [
        "HEAD",
        -11.803372383117676
      ],
      [
        "3-4",
        -11.836770057678223
      ],
      [
        "8-4",
        -11.848487854003906
      ],
      [
        "▁51",
        -11.880037307739258
      ],
      [
        "▁helm",
        -11.883482933044434
      ],
      [
        "▁react",
        -11.899652481079102
      ],
      [
        "del",
        -11.926009178161621
      ],
      [
        "▁numpy",
        -11.929771423339844
      ],
      [
        "-99",
        -11.932754516601562
      ],
      [
        "▁118",
        -11.938159942626953
      ],
      [
        "▁52",
        -11.948949813842773
      ],
      [
        "cea",
        -11.94953441619873
      ],
      [
        "mac",
        -11.95360279083252
      ],
      [
        "▁62",
        -11.956181526184082
      ],
      [
        "su",
        -11.961257934570312
      ],
      [
        "-0",
        -11.962760925292969
      ],
      [
        "-90",
        -11.967406272888184
      ],
      [
        "-89",
        -11.969279289245605
      ],
      [
        "▁61",
        -11.97332763671875
      ],
      [
        "▁58",
        -11.979743003845215
      ],
      [
        "-96",
        -11.981690406799316
      ],
      [
        "-97",
        -11.982134819030762
      ],
      [
        "ngo",
        -11.988678932189941
      ],
      [
        "benchmark",
        -11.990114212036133
      ],
      [
        "j",
        -11.998090744018555
      ],
      [
        "-98",
        -11.999068260192871
      ],
      [
        "-92",
        -12.006501197814941
      ],
      [
        "▁191",
        -12.014082908630371
      ],
      [
        "7-4",
        -12.021401405334473
      ],
      [
        "▁196",
        -12.024534225463867
      ],
      [
        "▁journal",
        -12.025647163391113
      ],
      [
        "▁54",
        -12.041271209716797
      ],
      [
        "▁183",
        -12.041478157043457
      ],
      [
        "▁175",
        -12.0438232421875
      ],
      [
        "▁161",
        -12.059648513793945
      ],
      [
        "▁57",
        -12.064593315124512
      ],
      [
        "▁188",
        -12.070730209350586
      ],
      [
        "▁63",
        -12.070801734924316
      ],
      [
        "-91",
        -12.079368591308594
      ],
      [
        "▁141",
        -12.085847854614258
      ],
      [
        "-81",
        -12.090280532836914
      ],
      [
        "▁137",
        -12.094828605651855
      ],
      [
        "▁121",
        -12.096648216247559
      ],
      [
        "▁184",
        -12.09850788116455
      ],
      [
        "▁167",
        -12.10024642944336
      ],
      [
        "▁116",
        -12.104019165039062
      ],
      [
        "▁172",
        -12.10551643371582
      ],
      [
        "-94",
        -12.105549812316895
      ],
      [
        "▁53",
        -12.107057571411133
      ],
      [
        "▁113",
        -12.107449531555176
      ],
      [
        "▁133",
        -12.109366416931152
      ],
      [
        "-84",
        -12.10942554473877
      ],
      [
        "▁103",
        -12.112741470336914
      ],
      [
        "▁171",
        -12.113947868347168
      ],
      [
        "▁135",
        -12.115065574645996
      ],
      [
        "▁168",
        -12.11574935913086
      ],
      [
        "▁169",
        -12.116138458251953
      ],
      [
        "▁125",
        -12.116588592529297
      ],
      [
        "▁173",
        -12.123311042785645
      ],
      [
        "▁132",
        -12.124300003051758
      ],
      [
        "▁144",
        -12.125580787658691
      ],
      [
        "▁152",
        -12.126873970031738
      ],
      [
        "▁159",
        -12.134251594543457
      ],
      [
        "▁129",
        -12.13592529296875
      ],
      [
        "▁177",
        -12.139559745788574
      ],
      [
        "-86",
        -12.140059471130371
      ],
      [
        "▁198",
        -12.143412590026855
      ],
      [
        "▁130",
        -12.14644718170166
      ],
      [
        "-88",
        -12.148757934570312
      ],
      [
        "▁165",
        -12.152812957763672
      ],
      [
        "▁181",
        -12.162549018859863
      ],
      [
        "lear",
        -12.16812515258789
      ],
      [
        "▁164",
        -12.168131828308105
      ],
      [
        "▁84",
        -12.177338600158691
      ],
      [
        "▁160",
        -12.183959007263184
      ],
      [
        "▁111",
        -12.18662166595459
      ],
      [
        "▁140",
        -12.18960952758789
      ],
      [
        "▁193",
        -12.191289901733398
      ],
      [
        "▁64",
        -12.194477081298828
      ],
      [
        "▁110",
        -12.19636344909668
      ],
      [
        "▁134",
        -12.197619438171387
      ],
      [
        "▁115",
        -12.198623657226562
      ],
      [
        "▁106",
        -12.201665878295898
      ],
      [
        "▁55",
        -12.20433521270752
      ],
      [
        "▁120",
        -12.207771301269531
      ],
      [
        "▁157",
        -12.208649635314941
      ],
      [
        "▁190",
        -12.212228775024414
      ],
      [
        "brow",
        -12.222599983215332
      ],
      [
        "▁114",
        -12.226532936096191
      ],
      [
        "▁146",
        -12.227004051208496
      ],
      [
        "▁156",
        -12.227377891540527
      ],
      [
        "▁178",
        -12.228187561035156
      ],
      [
        "▁180",
        -12.23501205444336
      ],
      [
        "▁170",
        -12.235190391540527
      ],
      [
        "▁145",
        -12.238913536071777
      ],
      [
        "▁174",
        -12.240283966064453
      ],
      [
        "▁154",
        -12.242227554321289
      ],
      [
        "▁93",
        -12.242315292358398
      ],
      [
        "▁128",
        -12.248440742492676
      ],
      [
        "▁88",
        -12.251858711242676
      ],
      [
        "▁194",
        -12.25210952758789
      ],
      [
        "▁108",
        -12.256053924560547
      ],
      [
        "-85",
        -12.260337829589844
      ],
      [
        "▁142",
        -12.263193130493164
      ],
      [
        "2-9",
        -12.263952255249023
      ],
      [
        "▁189",
        -12.264669418334961
      ],
      [
        "▁182",
        -12.267114639282227
      ],
      [
        "▁148",
        -12.268570899963379
      ],
      [
        "▁131",
        -12.268858909606934
      ],
      [
        "▁107",
        -12.271639823913574
      ],
      [
        "▁186",
        -12.27181339263916
      ],
      [
        "▁166",
        -12.274492263793945
      ],
      [
        "8888",
        -12.278206825256348
      ],
      [
        "▁72",
        -12.278742790222168
      ],
      [
        "▁78",
        -12.27911376953125
      ],
      [
        "▁197",
        -12.280692100524902
      ],
      [
        "▁139",
        -12.285234451293945
      ],
      [
        "▁67",
        -12.28892707824707
      ],
      [
        "▁158",
        -12.293246269226074
      ],
      [
        "▁117",
        -12.296724319458008
      ],
      [
        "▁200",
        -12.298855781555176
      ],
      [
        "▁112",
        -12.306004524230957
      ],
      [
        "▁163",
        -12.306389808654785
      ],
      [
        "▁91",
        -12.311742782592773
      ],
      [
        "▁119",
        -12.315678596496582
      ],
      [
        "▁pod",
        -12.317564964294434
      ],
      [
        "▁96",
        -12.31818675994873
      ],
      [
        "▁176",
        -12.319743156433105
      ],
      [
        "che",
        -12.326577186584473
      ],
      [
        "▁199",
        -12.328924179077148
      ],
      [
        "▁109",
        -12.335322380065918
      ],
      [
        "▁65",
        -12.340296745300293
      ],
      [
        "▁187",
        -12.341580390930176
      ],
      [
        "▁147",
        -12.341655731201172
      ],
      [
        "▁104",
        -12.342681884765625
      ],
      [
        "▁124",
        -12.346490859985352
      ],
      [
        "▁94",
        -12.3473539352417
      ],
      [
        "▁76",
        -12.348228454589844
      ],
      [
        "0-8",
        -12.34980583190918
      ],
      [
        "▁155",
        -12.350647926330566
      ],
      [
        "▁105",
        -12.355769157409668
      ],
      [
        "▁ru",
        -12.3572998046875
      ],
      [
        "▁79",
        -12.35755443572998
      ],
      [
        "▁162",
        -12.364778518676758
      ],
      [
        "▁90",
        -12.366507530212402
      ],
      [
        "▁82",
        -12.367773056030273
      ],
      [
        "▁127",
        -12.36927318572998
      ],
      [
        "▁101",
        -12.373207092285156
      ],
      [
        "▁195",
        -12.37342357635498
      ],
      [
        "▁66",
        -12.380156517028809
      ],
      [
        "▁143",
        -12.380383491516113
      ],
      [
        "▁59",
        -12.38740348815918
      ],
      [
        "▁75",
        -12.389287948608398
      ],
      [
        "▁153",
        -12.389643669128418
      ],
      [
        "▁92",
        -12.390134811401367
      ],
      [
        "▁192",
        -12.397839546203613
      ],
      [
        "▁122",
        -12.401483535766602
      ],
      [
        "▁74",
        -12.404425621032715
      ],
      [
        "-82",
        -12.406418800354004
      ],
      [
        "0-9",
        -12.407156944274902
      ],
      [
        "▁149",
        -12.409920692443848
      ],
      [
        "▁185",
        -12.41103744506836
      ],
      [
        "7-8",
        -12.414651870727539
      ],
      [
        "▁136",
        -12.422722816467285
      ],
      [
        "▁126",
        -12.422906875610352
      ],
      [
        "▁150",
        -12.424566268920898
      ],
      [
        "@17",
        -12.427047729492188
      ],
      [
        "▁83",
        -12.427932739257812
      ],
      [
        "▁85",
        -12.436314582824707
      ],
      [
        "▁77",
        -12.438672065734863
      ],
      [
        "▁99",
        -12.444766998291016
      ],
      [
        "4-9",
        -12.452226638793945
      ],
      [
        "▁98",
        -12.454448699951172
      ],
      [
        "tex",
        -12.457398414611816
      ],
      [
        "thom",
        -12.457964897155762
      ],
      [
        "▁151",
        -12.458781242370605
      ],
      [
        "3-9",
        -12.461466789245605
      ],
      [
        "-83",
        -12.461671829223633
      ],
      [
        "5-8",
        -12.4617919921875
      ],
      [
        "un",
        -12.463875770568848
      ],
      [
        "▁102",
        -12.469502449035645
      ],
      [
        "237",
        -12.473034858703613
      ],
      [
        "▁138",
        -12.474681854248047
      ],
      [
        "-87",
        -12.476494789123535
      ],
      [
        "▁71",
        -12.476634979248047
      ],
      [
        "▁69",
        -12.479606628417969
      ],
      [
        "docs",
        -12.483540534973145
      ],
      [
        "▁73",
        -12.495986938476562
      ],
      [
        "@10",
        -12.497647285461426
      ],
      [
        "▁68",
        -12.508400917053223
      ],
      [
        "-93",
        -12.509404182434082
      ],
      [
        "▁87",
        -12.518433570861816
      ],
      [
        "cron",
        -12.51902961730957
      ],
      [
        "6-9",
        -12.539891242980957
      ],
      [
        "1-8",
        -12.547228813171387
      ],
      [
        "▁97",
        -12.547402381896973
      ],
      [
        "-80",
        -12.571375846862793
      ],
      [
        ".106",
        -12.574053764343262
      ],
      [
        "own",
        -12.592764854431152
      ],
      [
        "9-8",
        -12.594206809997559
      ],
      [
        "@13",
        -12.602201461791992
      ],
      [
        "1-9",
        -12.609394073486328
      ],
      [
        "▁80",
        -12.627514839172363
      ],
      [
        "▁81",
        -12.629520416259766
      ],
      [
        "▁179",
        -12.630367279052734
      ],
      [
        "▁86",
        -12.632431983947754
      ],
      [
        "remove",
        -12.634777069091797
      ],
      [
        "8-8",
        -12.645353317260742
      ],
      [
        "-69",
        -12.649293899536133
      ],
      [
        "111",
        -12.652328491210938
      ],
      [
        "235",
        -12.652617454528809
      ],
      [
        "204",
        -12.656184196472168
      ],
      [
        "aef",
        -12.65710735321045
      ],
      [
        "8-9",
        -12.6591157913208
      ],
      [
        "-72",
        -12.66385555267334
      ],
      [
        "@14",
        -12.668098449707031
      ],
      [
        "208",
        -12.668380737304688
      ],
      [
        "9-9",
        -12.679726600646973
      ],
      [
        "acc",
        -12.679906845092773
      ],
      [
        "238",
        -12.687331199645996
      ],
      [
        "4-8",
        -12.688713073730469
      ],
      [
        "@137.",
        -12.695948600769043
      ],
      [
        "bcb",
        -12.699438095092773
      ],
      [
        "-75",
        -12.709746360778809
      ],
      [
        "▁89",
        -12.721175193786621
      ],
      [
        "253",
        -12.722044944763184
      ],
      [
        "@11",
        -12.72274398803711
      ],
      [
        "5-9",
        -12.733617782592773
      ],
      [
        "-66",
        -12.735945701599121
      ],
      [
        "adc",
        -12.738968849182129
      ],
      [
        "6-8",
        -12.746060371398926
      ],
      [
        "@18",
        -12.753772735595703
      ],
      [
        "improve",
        -12.764105796813965
      ],
      [
        "146",
        -12.769336700439453
      ],
      [
        "6-1",
        -12.770049095153809
      ],
      [
        "bae",
        -12.772011756896973
      ],
      [
        "wr",
        -12.775045394897461
      ],
      [
        "style",
        -12.776433944702148
      ],
      [
        "-61",
        -12.776437759399414
      ],
      [
        "@15",
        -12.793952941894531
      ],
      [
        "191",
        -12.794473648071289
      ],
      [
        ".176",
        -12.796706199645996
      ],
      [
        "1:~/",
        -12.802240371704102
      ],
      [
        "▁metric",
        -12.802566528320312
      ],
      [
        "bcd",
        -12.804794311523438
      ],
      [
        "3-8",
        -12.82240104675293
      ],
      [
        "179",
        -12.838456153869629
      ],
      [
        "132",
        -12.841451644897461
      ],
      [
        "@132.",
        -12.852682113647461
      ],
      [
        "▁refer",
        -12.854447364807129
      ],
      [
        "129",
        -12.85562515258789
      ],
      [
        "scheduler",
        -12.862719535827637
      ],
      [
        "aac",
        -12.866663932800293
      ],
      [
        "@188.",
        -12.867765426635742
      ],
      [
        "200",
        -12.868120193481445
      ],
      [
        "4-7",
        -12.868968963623047
      ],
      [
        "7-9",
        -12.869937896728516
      ],
      [
        ".215",
        -12.870057106018066
      ],
      [
        ".245",
        -12.870150566101074
      ],
      [
        "bca",
        -12.870807647705078
      ],
      [
        "acf",
        -12.87278938293457
      ],
      [
        "@73.",
        -12.877431869506836
      ],
      [
        "@16",
        -12.885909080505371
      ],
      [
        "-64",
        -12.888153076171875
      ],
      [
        "@157.",
        -12.88961410522461
      ],
      [
        "205",
        -12.89173698425293
      ],
      [
        "-76",
        -12.89822769165039
      ],
      [
        "bfb",
        -12.905213356018066
      ],
      [
        "bec",
        -12.906168937683105
      ],
      [
        "bda",
        -12.909029006958008
      ],
      [
        "7-7",
        -12.911848068237305
      ],
      [
        "163",
        -12.9140625
      ],
      [
        "abe",
        -12.919108390808105
      ],
      [
        "130",
        -12.919462203979492
      ],
      [
        "eca",
        -12.919590950012207
      ],
      [
        "-65",
        -12.929461479187012
      ],
      [
        "aea",
        -12.933623313903809
      ],
      [
        "@12",
        -12.938074111938477
      ],
      [
        ".224",
        -12.938206672668457
      ],
      [
        "2-8",
        -12.938469886779785
      ],
      [
        "aec",
        -12.941316604614258
      ],
      [
        "@99.",
        -12.944677352905273
      ],
      [
        "bfe",
        -12.944989204406738
      ],
      [
        "-59",
        -12.946776390075684
      ],
      [
        "ccf",
        -12.952165603637695
      ],
      [
        ".149",
        -12.953574180603027
      ],
      [
        "250",
        -12.955506324768066
      ],
      [
        "@33.",
        -12.958474159240723
      ],
      [
        "110",
        -12.959446907043457
      ],
      [
        ".249",
        -12.960644721984863
      ],
      [
        "176",
        -12.96310043334961
      ],
      [
        "aaa",
        -12.963623046875
      ],
      [
        ".211",
        -12.967572212219238
      ],
      [
        ".112",
        -12.969559669494629
      ],
      [
        ".154",
        -12.970778465270996
      ],
      [
        ".223",
        -12.973160743713379
      ],
      [
        "@52.",
        -12.986530303955078
      ],
      [
        "fff",
        -12.98796272277832
      ],
      [
        "bfc",
        -12.988724708557129
      ],
      [
        "fcd",
        -12.992769241333008
      ],
      [
        "@51.",
        -12.99736499786377
      ],
      [
        "@63.",
        -12.999281883239746
      ],
      [
        "@131.",
        -13.004548072814941
      ],
      [
        ".227",
        -13.008710861206055
      ],
      [
        ".141",
        -13.00914478302002
      ],
      [
        ".105",
        -13.009353637695312
      ],
      [
        "aaf",
        -13.011141777038574
      ],
      [
        ".230",
        -13.01239013671875
      ],
      [
        ".108",
        -13.017354965209961
      ],
      [
        "eee",
        -13.018596649169922
      ],
      [
        "bbb",
        -13.019664764404297
      ],
      [
        ".212",
        -13.022610664367676
      ],
      [
        "@122.",
        -13.023700714111328
      ],
      [
        "fdc",
        -13.025636672973633
      ],
      [
        "@184.",
        -13.025677680969238
      ],
      [
        "4-5",
        -13.026517868041992
      ],
      [
        "@4",
        -13.02783203125
      ],
      [
        ".169",
        -13.027876853942871
      ],
      [
        "232",
        -13.028295516967773
      ],
      [
        "@62.",
        -13.029217720031738
      ],
      [
        "afc",
        -13.030559539794922
      ],
      [
        "@142.",
        -13.032289505004883
      ],
      [
        "221",
        -13.033040046691895
      ],
      [
        "@189.",
        -13.035353660583496
      ],
      [
        "@170.",
        -13.036349296569824
      ],
      [
        "1-5",
        -13.036429405212402
      ],
      [
        ".180",
        -13.03684139251709
      ],
      [
        "fef",
        -13.036927223205566
      ],
      [
        "ests",
        -13.040261268615723
      ],
      [
        "@22.",
        -13.042696952819824
      ],
      [
        "07-",
        -13.044102668762207
      ],
      [
        "ince",
        -13.044473648071289
      ],
      [
        "bdc",
        -13.0449857711792
      ],
      [
        "@87.",
        -13.045598030090332
      ],
      [
        "bcc",
        -13.046016693115234
      ],
      [
        "bbd",
        -13.046517372131348
      ],
      [
        "192",
        -13.047876358032227
      ],
      [
        "178",
        -13.049236297607422
      ],
      [
        "bbc",
        -13.051294326782227
      ],
      [
        ".107",
        -13.053427696228027
      ],
      [
        ".241",
        -13.056127548217773
      ],
      [
        ".244",
        -13.057385444641113
      ],
      [
        "141",
        -13.057774543762207
      ],
      [
        "bff",
        -13.064849853515625
      ],
      [
        "cee",
        -13.06495475769043
      ],
      [
        "@6",
        -13.06610107421875
      ],
      [
        ".189",
        -13.067578315734863
      ],
      [
        "203",
        -13.068263053894043
      ],
      [
        ".103",
        -13.068264961242676
      ],
      [
        "@163.",
        -13.068845748901367
      ],
      [
        ".254",
        -13.07364559173584
      ],
      [
        "@130.",
        -13.075502395629883
      ],
      [
        ".174",
        -13.075589179992676
      ],
      [
        "7-5",
        -13.075672149658203
      ],
      [
        ".203",
        -13.077166557312012
      ],
      [
        "epo",
        -13.077792167663574
      ],
      [
        "209",
        -13.07904052734375
      ],
      [
        "▁0.0",
        -13.079922676086426
      ],
      [
        "@145.",
        -13.081298828125
      ],
      [
        "@93.",
        -13.08238697052002
      ],
      [
        "243",
        -13.085016250610352
      ],
      [
        ".233",
        -13.086738586425781
      ],
      [
        "cbc",
        -13.089348793029785
      ],
      [
        ".239",
        -13.08962345123291
      ],
      [
        "@105.",
        -13.091954231262207
      ],
      [
        ".151",
        -13.0928955078125
      ],
      [
        "@54.",
        -13.092911720275879
      ],
      [
        "195",
        -13.094011306762695
      ],
      [
        "906",
        -13.09470272064209
      ],
      [
        "@61.",
        -13.094815254211426
      ],
      [
        ".161",
        -13.095759391784668
      ],
      [
        ".246",
        -13.096546173095703
      ],
      [
        "▁nod",
        -13.098601341247559
      ],
      [
        "bee",
        -13.099242210388184
      ],
      [
        "240",
        -13.099628448486328
      ],
      [
        ".157",
        -13.100196838378906
      ],
      [
        "eba",
        -13.100449562072754
      ],
      [
        "eac",
        -13.101757049560547
      ],
      [
        "@38.",
        -13.1038236618042
      ],
      [
        ".190",
        -13.108806610107422
      ],
      [
        "249",
        -13.11099624633789
      ],
      [
        "cbf",
        -13.111335754394531
      ],
      [
        "dec",
        -13.11241626739502
      ],
      [
        "158",
        -13.113202095031738
      ],
      [
        "fbf",
        -13.117218017578125
      ],
      [
        "afb",
        -13.117790222167969
      ],
      [
        ".220",
        -13.11882209777832
      ],
      [
        "@192.1",
        -13.11920166015625
      ],
      [
        ".201",
        -13.120025634765625
      ],
      [
        "@128.",
        -13.120304107666016
      ],
      [
        "@171.",
        -13.122401237487793
      ],
      [
        "@36.",
        -13.124039649963379
      ],
      [
        "168",
        -13.125433921813965
      ],
      [
        "207",
        -13.127521514892578
      ],
      [
        "@151.",
        -13.127803802490234
      ],
      [
        "fdd",
        -13.129339218139648
      ],
      [
        ".207",
        -13.133670806884766
      ],
      [
        "216",
        -13.133675575256348
      ],
      [
        "8-0",
        -13.13482666015625
      ],
      [
        "@164.",
        -13.135790824890137
      ],
      [
        "helm",
        -13.137107849121094
      ],
      [
        ".156",
        -13.13942813873291
      ],
      [
        "214",
        -13.140100479125977
      ],
      [
        "@83.",
        -13.141758918762207
      ],
      [
        "afa",
        -13.141820907592773
      ],
      [
        "169",
        -13.143730163574219
      ],
      [
        "@21.",
        -13.145744323730469
      ],
      [
        "aff",
        -13.145777702331543
      ],
      [
        "5-5",
        -13.146493911743164
      ],
      [
        "cfc",
        -13.146907806396484
      ],
      [
        "126",
        -13.148499488830566
      ],
      [
        "105",
        -13.149365425109863
      ],
      [
        "bea",
        -13.14962100982666
      ],
      [
        ".247",
        -13.150375366210938
      ],
      [
        "245",
        -13.151354789733887
      ],
      [
        ".240",
        -13.1531343460083
      ],
      [
        "224",
        -13.153165817260742
      ],
      [
        "ebf",
        -13.15422248840332
      ],
      [
        "154",
        -13.155813217163086
      ],
      [
        "@70.",
        -13.156524658203125
      ],
      [
        "@152.",
        -13.157486915588379
      ],
      [
        "-77",
        -13.157522201538086
      ],
      [
        "@161.",
        -13.15882682800293
      ],
      [
        "@108.",
        -13.159013748168945
      ],
      [
        "@135.",
        -13.160265922546387
      ],
      [
        "9-6",
        -13.16258716583252
      ],
      [
        "@106.",
        -13.164511680603027
      ],
      [
        ".251",
        -13.166694641113281
      ],
      [
        "229",
        -13.166714668273926
      ],
      [
        "cac",
        -13.16681957244873
      ],
      [
        "@53.",
        -13.167086601257324
      ],
      [
        "196",
        -13.167306900024414
      ],
      [
        "fcb",
        -13.167854309082031
      ],
      [
        "@173.",
        -13.168610572814941
      ],
      [
        "@181.",
        -13.168983459472656
      ],
      [
        "bba",
        -13.170228958129883
      ],
      [
        ".199",
        -13.171069145202637
      ],
      [
        ".127",
        -13.171431541442871
      ],
      [
        "162",
        -13.172499656677246
      ],
      [
        "544",
        -13.17365837097168
      ],
      [
        ".226",
        -13.174403190612793
      ],
      [
        "177",
        -13.175477981567383
      ],
      [
        "139",
        -13.175507545471191
      ],
      [
        "@7",
        -13.175869941711426
      ],
      [
        ".185",
        -13.176227569580078
      ],
      [
        ".150",
        -13.176656723022461
      ],
      [
        "242",
        -13.177277565002441
      ],
      [
        ".165",
        -13.178627014160156
      ],
      [
        ".144",
        -13.178669929504395
      ],
      [
        "@182.",
        -13.179644584655762
      ],
      [
        "aae",
        -13.180828094482422
      ],
      [
        "bef",
        -13.18325424194336
      ],
      [
        "@77.",
        -13.183473587036133
      ],
      [
        ".148",
        -13.184338569641113
      ],
      [
        "@112.",
        -13.1851224899292
      ],
      [
        "@88.",
        -13.185380935668945
      ],
      [
        "@53.1",
        -13.188451766967773
      ],
      [
        "dcb",
        -13.189726829528809
      ],
      [
        "-73",
        -13.190006256103516
      ],
      [
        "bfd",
        -13.192944526672363
      ],
      [
        ".164",
        -13.194195747375488
      ],
      [
        "215",
        -13.194683074951172
      ],
      [
        "@45.",
        -13.194741249084473
      ],
      [
        "fda",
        -13.196043968200684
      ],
      [
        "afd",
        -13.196191787719727
      ],
      [
        "@58.",
        -13.196434020996094
      ],
      [
        "@101.",
        -13.196602821350098
      ],
      [
        "0-7",
        -13.197450637817383
      ],
      [
        "@24.",
        -13.197790145874023
      ],
      [
        "ecf",
        -13.19847583770752
      ],
      [
        ".213",
        -13.198914527893066
      ],
      [
        "@95.",
        -13.19987678527832
      ],
      [
        "@129.",
        -13.200024604797363
      ],
      [
        "@75.",
        -13.200481414794922
      ],
      [
        "887",
        -13.204483985900879
      ],
      [
        "@56.",
        -13.204668998718262
      ],
      [
        "@46.",
        -13.20509147644043
      ],
      [
        "@125.",
        -13.205482482910156
      ],
      [
        ".209",
        -13.2066011428833
      ],
      [
        ".218",
        -13.20857048034668
      ],
      [
        "212",
        -13.208589553833008
      ],
      [
        "298",
        -13.208839416503906
      ],
      [
        "487",
        -13.209709167480469
      ],
      [
        "prototype",
        -13.209785461425781
      ],
      [
        "167",
        -13.212424278259277
      ],
      [
        "bfa",
        -13.214062690734863
      ],
      [
        "@9",
        -13.214706420898438
      ],
      [
        "2-1",
        -13.214818954467773
      ],
      [
        ".140",
        -13.215094566345215
      ],
      [
        "@23.",
        -13.215330123901367
      ],
      [
        ".222",
        -13.216303825378418
      ],
      [
        "cdc",
        -13.216959953308105
      ],
      [
        "ccb",
        -13.218436241149902
      ],
      [
        "@172.",
        -13.220296859741211
      ],
      [
        "@78.",
        -13.221630096435547
      ],
      [
        ".194",
        -13.223000526428223
      ],
      [
        "220",
        -13.223973274230957
      ],
      [
        "eff",
        -13.224353790283203
      ],
      [
        "136",
        -13.224793434143066
      ],
      [
        "@174.",
        -13.22518253326416
      ],
      [
        "143",
        -13.226261138916016
      ],
      [
        "7.11",
        -13.229825019836426
      ],
      [
        "1-3",
        -13.230027198791504
      ],
      [
        ".196",
        -13.23162841796875
      ],
      [
        "116",
        -13.23508071899414
      ],
      [
        "244",
        -13.236787796020508
      ],
      [
        "190",
        -13.237224578857422
      ],
      [
        "9-5",
        -13.23798656463623
      ],
      [
        "@178.",
        -13.23906135559082
      ],
      [
        "543",
        -13.239237785339355
      ],
      [
        "89-",
        -13.239747047424316
      ],
      [
        ".234",
        -13.243069648742676
      ],
      [
        "8-5",
        -13.243741989135742
      ],
      [
        "186",
        -13.243924140930176
      ],
      [
        "@96.",
        -13.244708061218262
      ],
      [
        "-52",
        -13.2450532913208
      ],
      [
        ".214",
        -13.245261192321777
      ],
      [
        "baa",
        -13.245471954345703
      ],
      [
        "294",
        -13.24601936340332
      ],
      [
        ".139",
        -13.246088027954102
      ],
      [
        "bbe",
        -13.246856689453125
      ],
      [
        ".131",
        -13.247307777404785
      ],
      [
        "194",
        -13.247591972351074
      ],
      [
        "127",
        -13.250000953674316
      ],
      [
        ".115",
        -13.25015926361084
      ],
      [
        "206",
        -13.25027084350586
      ],
      [
        "efa",
        -13.251073837280273
      ],
      [
        "bac",
        -13.251578330993652
      ],
      [
        "dcf",
        -13.251821517944336
      ],
      [
        "@14.",
        -13.25190544128418
      ],
      [
        "9:/",
        -13.252706527709961
      ],
      [
        "@28.",
        -13.254535675048828
      ],
      [
        "@126.",
        -13.254613876342773
      ],
      [
        "baf",
        -13.254798889160156
      ],
      [
        "@120.",
        -13.258459091186523
      ],
      [
        "ade",
        -13.261240005493164
      ],
      [
        ".166",
        -13.261255264282227
      ],
      [
        "@69.",
        -13.263204574584961
      ],
      [
        "358",
        -13.263984680175781
      ],
      [
        "dea",
        -13.26476764678955
      ],
      [
        ".187",
        -13.26488971710205
      ],
      [
        "@185.",
        -13.26491928100586
      ],
      [
        ".138",
        -13.265325546264648
      ],
      [
        "@110.",
        -13.265442848205566
      ],
      [
        "abb",
        -13.265826225280762
      ],
      [
        "ng",
        -13.26655387878418
      ],
      [
        "145",
        -13.266701698303223
      ],
      [
        "@119.",
        -13.267892837524414
      ],
      [
        "@168.",
        -13.268244743347168
      ],
      [
        "848",
        -13.269099235534668
      ],
      [
        "@98.",
        -13.26931095123291
      ],
      [
        "2.2",
        -13.269758224487305
      ],
      [
        "ccc",
        -13.270219802856445
      ],
      [
        "acb",
        -13.270355224609375
      ],
      [
        "6-7",
        -13.272953987121582
      ],
      [
        "66-",
        -13.273446083068848
      ],
      [
        "@118.",
        -13.276899337768555
      ],
      [
        "@144.",
        -13.277807235717773
      ],
      [
        ".119",
        -13.277849197387695
      ],
      [
        "254",
        -13.278242111206055
      ],
      [
        "cfd",
        -13.278433799743652
      ],
      [
        "cfe",
        -13.27908992767334
      ],
      [
        "@85.",
        -13.279319763183594
      ],
      [
        "9-1",
        -13.279438972473145
      ],
      [
        ".236",
        -13.279546737670898
      ],
      [
        "fbc",
        -13.281225204467773
      ],
      [
        "561",
        -13.283245086669922
      ],
      [
        "0-2",
        -13.283529281616211
      ],
      [
        "@104.",
        -13.28400707244873
      ],
      [
        ".145",
        -13.284013748168945
      ],
      [
        "@91.",
        -13.284784317016602
      ],
      [
        "236",
        -13.285004615783691
      ],
      [
        "881",
        -13.285082817077637
      ],
      [
        "05-",
        -13.285805702209473
      ],
      [
        ".134",
        -13.286415100097656
      ],
      [
        "2-0",
        -13.287150382995605
      ],
      [
        "@149.",
        -13.287336349487305
      ],
      [
        ".137",
        -13.287943840026855
      ],
      [
        "155",
        -13.287957191467285
      ],
      [
        "clean",
        -13.288599967956543
      ],
      [
        "@86.",
        -13.289139747619629
      ],
      [
        "7-2",
        -13.290682792663574
      ],
      [
        "@160.1",
        -13.291748046875
      ],
      [
        "252",
        -13.292144775390625
      ],
      [
        "875",
        -13.294168472290039
      ],
      [
        "@166.",
        -13.295080184936523
      ],
      [
        "6-6",
        -13.296235084533691
      ],
      [
        "cfb",
        -13.296330451965332
      ],
      [
        ".172",
        -13.296411514282227
      ],
      [
        "fdf",
        -13.299041748046875
      ],
      [
        "068",
        -13.300477027893066
      ],
      [
        "117",
        -13.301030158996582
      ],
      [
        "@150.",
        -13.30152702331543
      ],
      [
        "427",
        -13.303301811218262
      ],
      [
        ".182",
        -13.303533554077148
      ],
      [
        ".238",
        -13.303699493408203
      ],
      [
        "@136.",
        -13.30467414855957
      ],
      [
        "dcc",
        -13.304912567138672
      ],
      [
        "@89.",
        -13.308270454406738
      ],
      [
        "109",
        -13.308856964111328
      ],
      [
        "fba",
        -13.309466361999512
      ],
      [
        "@167.",
        -13.309823989868164
      ],
      [
        "@147.",
        -13.310713768005371
      ],
      [
        "181",
        -13.311856269836426
      ],
      [
        "6:~/",
        -13.312786102294922
      ],
      [
        "@64.",
        -13.31289005279541
      ],
      [
        "@11.",
        -13.312973976135254
      ],
      [
        "aad",
        -13.314780235290527
      ],
      [
        "6-0",
        -13.315479278564453
      ],
      [
        "@10.",
        -13.316049575805664
      ],
      [
        "0-3",
        -13.316737174987793
      ],
      [
        "bbf",
        -13.31753158569336
      ],
      [
        "201",
        -13.318349838256836
      ],
      [
        "@140.",
        -13.319021224975586
      ],
      [
        ".217",
        -13.31952953338623
      ],
      [
        ".242",
        -13.321311950683594
      ],
      [
        "@116.",
        -13.321966171264648
      ],
      [
        "@138.",
        -13.322315216064453
      ],
      [
        "@34.",
        -13.322428703308105
      ],
      [
        ".167",
        -13.32402515411377
      ],
      [
        "▁cal",
        -13.324036598205566
      ],
      [
        "222",
        -13.324878692626953
      ],
      [
        "577",
        -13.326642990112305
      ],
      [
        "@114.",
        -13.328210830688477
      ],
      [
        "672",
        -13.328815460205078
      ],
      [
        ".109",
        -13.328962326049805
      ],
      [
        "beb",
        -13.328971862792969
      ],
      [
        "fce",
        -13.329050064086914
      ],
      [
        "188",
        -13.330557823181152
      ],
      [
        "128",
        -13.331308364868164
      ],
      [
        "355",
        -13.334111213684082
      ],
      [
        "62-",
        -13.334437370300293
      ],
      [
        "296",
        -13.33447551727295
      ],
      [
        "590",
        -13.33525276184082
      ],
      [
        "903",
        -13.335643768310547
      ],
      [
        "845",
        -13.335659980773926
      ],
      [
        "075",
        -13.336747169494629
      ],
      [
        "6-5",
        -13.340392112731934
      ],
      [
        "6:/",
        -13.34079360961914
      ],
      [
        "@60.",
        -13.341744422912598
      ],
      [
        "866",
        -13.341779708862305
      ],
      [
        "3-5",
        -13.342296600341797
      ],
      [
        "3-2",
        -13.342690467834473
      ],
      [
        "4-3",
        -13.344070434570312
      ],
      [
        "159",
        -13.344354629516602
      ],
      [
        "caa",
        -13.348252296447754
      ],
      [
        "945",
        -13.348363876342773
      ],
      [
        "bcf",
        -13.348417282104492
      ],
      [
        "138",
        -13.34985065460205
      ],
      [
        ".188",
        -13.351447105407715
      ],
      [
        "185",
        -13.352437019348145
      ],
      [
        ".53",
        -13.353684425354004
      ],
      [
        "635",
        -13.353949546813965
      ],
      [
        "@26.",
        -13.354565620422363
      ],
      [
        "217",
        -13.355096817016602
      ],
      [
        "@20.",
        -13.356201171875
      ],
      [
        ".200",
        -13.356295585632324
      ],
      [
        "@146.",
        -13.356318473815918
      ],
      [
        "1:/",
        -13.357287406921387
      ],
      [
        "400",
        -13.357768058776855
      ],
      [
        "180",
        -13.358251571655273
      ],
      [
        "03-",
        -13.358518600463867
      ],
      [
        "fea",
        -13.35879898071289
      ],
      [
        "@97.",
        -13.35951042175293
      ],
      [
        "ceb",
        -13.360326766967773
      ],
      [
        ".184",
        -13.360824584960938
      ],
      [
        "966",
        -13.361708641052246
      ],
      [
        "483",
        -13.362445831298828
      ],
      [
        "ecb",
        -13.362515449523926
      ],
      [
        "aeb",
        -13.364001274108887
      ],
      [
        "fad",
        -13.364679336547852
      ],
      [
        "bab",
        -13.364949226379395
      ],
      [
        "8-7",
        -13.365945816040039
      ],
      [
        "2-5",
        -13.365955352783203
      ],
      [
        "fbe",
        -13.367218971252441
      ],
      [
        "869",
        -13.368607521057129
      ],
      [
        "@162.",
        -13.369041442871094
      ],
      [
        "409",
        -13.369505882263184
      ],
      [
        "175",
        -13.370084762573242
      ],
      [
        "65-",
        -13.370321273803711
      ],
      [
        "efe",
        -13.371060371398926
      ],
      [
        "cff",
        -13.371781349182129
      ],
      [
        ".186",
        -13.371872901916504
      ],
      [
        "@133.",
        -13.373103141784668
      ],
      [
        "06-",
        -13.373712539672852
      ],
      [
        "046",
        -13.373791694641113
      ],
      [
        "bde",
        -13.37384033203125
      ],
      [
        "ur",
        -13.374031066894531
      ],
      [
        "88-4",
        -13.374750137329102
      ],
      [
        "228",
        -13.375235557556152
      ],
      [
        "144",
        -13.376091957092285
      ],
      [
        "899",
        -13.376537322998047
      ],
      [
        "@153.",
        -13.377774238586426
      ],
      [
        "@187.",
        -13.378626823425293
      ],
      [
        "@18.",
        -13.380285263061523
      ],
      [
        "dj",
        -13.381306648254395
      ],
      [
        "086",
        -13.381314277648926
      ],
      [
        ".114",
        -13.381779670715332
      ],
      [
        "@39.",
        -13.383543968200684
      ],
      [
        "bad",
        -13.38560676574707
      ],
      [
        "@66.",
        -13.386502265930176
      ],
      [
        "300",
        -13.3876371383667
      ],
      [
        "9-41",
        -13.38858413696289
      ],
      [
        "125",
        -13.388747215270996
      ],
      [
        ".183",
        -13.39173412322998
      ],
      [
        ".175",
        -13.391746520996094
      ],
      [
        "@113.",
        -13.391902923583984
      ],
      [
        "@127.",
        -13.39266586303711
      ],
      [
        "0.2",
        -13.394047737121582
      ],
      [
        "173",
        -13.394881248474121
      ],
      [
        "@154.",
        -13.39495849609375
      ],
      [
        "@159.",
        -13.398336410522461
      ],
      [
        "835",
        -13.398370742797852
      ],
      [
        "87-",
        -13.399784088134766
      ],
      [
        "849",
        -13.400474548339844
      ],
      [
        ".204",
        -13.40050983428955
      ],
      [
        "596",
        -13.400657653808594
      ],
      [
        "870",
        -13.401118278503418
      ],
      [
        "239",
        -13.401277542114258
      ],
      [
        "617",
        -13.401749610900879
      ],
      [
        "analy",
        -13.402573585510254
      ],
      [
        "you",
        -13.402990341186523
      ],
      [
        "eaf",
        -13.403072357177734
      ],
      [
        "499",
        -13.40505599975586
      ],
      [
        "bdd",
        -13.405508041381836
      ],
      [
        "115",
        -13.406661033630371
      ],
      [
        "@47.",
        -13.40677547454834
      ],
      [
        "919",
        -13.408042907714844
      ],
      [
        "189",
        -13.408528327941895
      ],
      [
        "@192.",
        -13.409321784973145
      ],
      [
        ".160",
        -13.409570693969727
      ],
      [
        "417",
        -13.410012245178223
      ],
      [
        "1-0",
        -13.410892486572266
      ],
      [
        "0-1",
        -13.41092300415039
      ],
      [
        "@42.1",
        -13.410983085632324
      ],
      [
        "260",
        -13.411566734313965
      ],
      [
        "@186.",
        -13.412342071533203
      ],
      [
        "@74.",
        -13.412720680236816
      ],
      [
        "fde",
        -13.413064002990723
      ],
      [
        "99-",
        -13.413315773010254
      ],
      [
        "955",
        -13.41354751586914
      ],
      [
        "cbb",
        -13.41431713104248
      ],
      [
        "fcc",
        -13.414349555969238
      ],
      [
        "@42.",
        -13.41478157043457
      ],
      [
        "000",
        -13.415131568908691
      ],
      [
        "@124.",
        -13.416316032409668
      ],
      [
        "61-",
        -13.41715145111084
      ],
      [
        ".118",
        -13.418115615844727
      ],
      [
        "8:/",
        -13.4183931350708
      ],
      [
        "@31.",
        -13.41958236694336
      ],
      [
        ".121",
        -13.420069694519043
      ],
      [
        "511",
        -13.420183181762695
      ],
      [
        "bdf",
        -13.42138385772705
      ],
      [
        "2-7",
        -13.422154426574707
      ],
      [
        "@177.",
        -13.422444343566895
      ],
      [
        "@141.",
        -13.424630165100098
      ],
      [
        "@32.",
        -13.425207138061523
      ],
      [
        "4-1",
        -13.42527961730957
      ],
      [
        "@18.1",
        -13.425426483154297
      ],
      [
        ".193",
        -13.426406860351562
      ],
      [
        "@71.",
        -13.426491737365723
      ],
      [
        "bce",
        -13.426549911499023
      ],
      [
        "@62.1",
        -13.4282808303833
      ],
      [
        "@30.",
        -13.42866325378418
      ],
      [
        "08-",
        -13.430670738220215
      ],
      [
        "fec",
        -13.430706024169922
      ],
      [
        "90-",
        -13.430810928344727
      ],
      [
        "aee",
        -13.431684494018555
      ],
      [
        ".229",
        -13.435813903808594
      ],
      [
        "549",
        -13.436328887939453
      ],
      [
        "095",
        -13.436565399169922
      ],
      [
        "caf",
        -13.43677806854248
      ],
      [
        "efc",
        -13.437411308288574
      ],
      [
        "389",
        -13.43765640258789
      ],
      [
        "@84.",
        -13.438211441040039
      ],
      [
        "698",
        -13.438549041748047
      ],
      [
        ".158",
        -13.4398775100708
      ],
      [
        ".225",
        -13.43989086151123
      ],
      [
        "965",
        -13.440848350524902
      ],
      [
        "452",
        -13.441020965576172
      ],
      [
        "349",
        -13.44124984741211
      ],
      [
        "cbe",
        -13.442091941833496
      ],
      [
        "@155.1",
        -13.442872047424316
      ],
      [
        "48-",
        -13.442925453186035
      ],
      [
        "91-",
        -13.443063735961914
      ],
      [
        "7-44",
        -13.443133354187012
      ],
      [
        ".252",
        -13.443665504455566
      ],
      [
        "705",
        -13.44450569152832
      ],
      [
        "134",
        -13.444507598876953
      ],
      [
        "6-47",
        -13.444681167602539
      ],
      [
        "709",
        -13.444847106933594
      ],
      [
        "445",
        -13.444987297058105
      ],
      [
        "0-5",
        -13.447030067443848
      ],
      [
        "934",
        -13.448099136352539
      ],
      [
        "9-0",
        -13.448277473449707
      ],
      [
        "852",
        -13.448378562927246
      ],
      [
        "922",
        -13.449054718017578
      ],
      [
        ".104",
        -13.450194358825684
      ],
      [
        "038",
        -13.45022964477539
      ],
      [
        "@57.",
        -13.451369285583496
      ],
      [
        "170",
        -13.451374053955078
      ],
      [
        "network",
        -13.45166015625
      ],
      [
        "278",
        -13.452410697937012
      ],
      [
        "5-0",
        -13.452603340148926
      ],
      [
        "994",
        -13.45290470123291
      ],
      [
        "@29.",
        -13.453689575195312
      ],
      [
        ".133",
        -13.455634117126465
      ],
      [
        "840",
        -13.455711364746094
      ],
      [
        "150",
        -13.458553314208984
      ],
      [
        "cab",
        -13.459107398986816
      ],
      [
        "831",
        -13.460041046142578
      ],
      [
        "579",
        -13.460221290588379
      ],
      [
        "aab",
        -13.460428237915039
      ],
      [
        "@169.",
        -13.46043586730957
      ],
      [
        "685",
        -13.460832595825195
      ],
      [
        "160",
        -13.46212100982666
      ],
      [
        "981",
        -13.463247299194336
      ],
      [
        "458",
        -13.463770866394043
      ],
      [
        "714",
        -13.464262962341309
      ],
      [
        "4-6",
        -13.464383125305176
      ],
      [
        "-04",
        -13.464470863342285
      ],
      [
        "202",
        -13.464906692504883
      ],
      [
        "@148.",
        -13.466350555419922
      ],
      [
        "8.23",
        -13.46657657623291
      ],
      [
        ".178",
        -13.466622352600098
      ],
      [
        "036",
        -13.467059135437012
      ],
      [
        "094",
        -13.468018531799316
      ],
      [
        "5.11",
        -13.468027114868164
      ],
      [
        "289",
        -13.468137741088867
      ],
      [
        "@123.",
        -13.46860408782959
      ],
      [
        "@160.",
        -13.468951225280762
      ],
      [
        ".170",
        -13.469223976135254
      ],
      [
        "915",
        -13.46953010559082
      ],
      [
        "376",
        -13.47124195098877
      ],
      [
        "259",
        -13.47160816192627
      ],
      [
        "477",
        -13.473820686340332
      ],
      [
        "0.20",
        -13.474251747131348
      ],
      [
        "519",
        -13.474465370178223
      ],
      [
        "120",
        -13.474688529968262
      ],
      [
        "faa",
        -13.47507095336914
      ],
      [
        "382",
        -13.475407600402832
      ],
      [
        "@13.",
        -13.475825309753418
      ],
      [
        ".171",
        -13.475969314575195
      ],
      [
        "7:~/",
        -13.476913452148438
      ],
      [
        "@50.1",
        -13.477005004882812
      ],
      [
        "9-7",
        -13.477457046508789
      ],
      [
        ".117",
        -13.47835922241211
      ],
      [
        "3:~/",
        -13.478551864624023
      ],
      [
        "953",
        -13.479867935180664
      ],
      [
        "4.2",
        -13.480215072631836
      ],
      [
        "621",
        -13.48133659362793
      ],
      [
        "@102.",
        -13.48324966430664
      ],
      [
        "@121.",
        -13.483291625976562
      ],
      [
        "455",
        -13.483541488647461
      ],
      [
        "eef",
        -13.483613014221191
      ],
      [
        "684",
        -13.484018325805664
      ],
      [
        "320",
        -13.484274864196777
      ],
      [
        ".219",
        -13.484740257263184
      ],
      [
        "ffc",
        -13.48475170135498
      ],
      [
        "@117.",
        -13.48532772064209
      ],
      [
        "121",
        -13.485871315002441
      ],
      [
        "486",
        -13.486035346984863
      ],
      [
        "537",
        -13.486613273620605
      ],
      [
        ".124",
        -13.4868745803833
      ],
      [
        "2-2",
        -13.487403869628906
      ],
      [
        "893",
        -13.487597465515137
      ],
      [
        ".173",
        -13.488182067871094
      ],
      [
        "efb",
        -13.488285064697266
      ],
      [
        "184",
        -13.488489151000977
      ],
      [
        "@187.1",
        -13.488605499267578
      ],
      [
        "182",
        -13.48981761932373
      ],
      [
        "570",
        -13.489989280700684
      ],
      [
        "251",
        -13.490222930908203
      ],
      [
        "106",
        -13.490720748901367
      ],
      [
        "742",
        -13.490948677062988
      ],
      [
        "052",
        -13.49142074584961
      ],
      [
        "844",
        -13.492596626281738
      ],
      [
        "9.2",
        -13.492720603942871
      ],
      [
        "84-",
        -13.49434757232666
      ],
      [
        "abf",
        -13.495025634765625
      ],
      [
        ".153",
        -13.495294570922852
      ],
      [
        "151",
        -13.495338439941406
      ],
      [
        "@176.",
        -13.496481895446777
      ],
      [
        "fee",
        -13.496549606323242
      ],
      [
        "cef",
        -13.496598243713379
      ],
      [
        "88-",
        -13.497376441955566
      ],
      [
        "@145.1",
        -13.4975004196167
      ],
      [
        "7:/",
        -13.497550010681152
      ],
      [
        "964",
        -13.49833869934082
      ],
      [
        "@84.1",
        -13.49923324584961
      ],
      [
        "rig",
        -13.499521255493164
      ],
      [
        "492",
        -13.501578330993652
      ],
      [
        ".135",
        -13.502421379089355
      ],
      [
        "309",
        -13.502449035644531
      ],
      [
        "967",
        -13.502840995788574
      ],
      [
        "@65.",
        -13.503274917602539
      ],
      [
        "415",
        -13.503988265991211
      ],
      [
        ".216",
        -13.505576133728027
      ],
      [
        "77-",
        -13.506284713745117
      ],
      [
        "@103.",
        -13.506769180297852
      ],
      [
        "446",
        -13.507145881652832
      ],
      [
        "164",
        -13.507991790771484
      ],
      [
        "124",
        -13.509132385253906
      ],
      [
        ".181",
        -13.509963989257812
      ],
      [
        ".231",
        -13.512927055358887
      ],
      [
        "390",
        -13.514270782470703
      ],
      [
        "989",
        -13.516504287719727
      ],
      [
        "9.15",
        -13.517230987548828
      ],
      [
        "270",
        -13.51742935180664
      ],
      [
        "764",
        -13.517545700073242
      ],
      [
        "654",
        -13.518482208251953
      ],
      [
        "941",
        -13.51852798461914
      ],
      [
        "282",
        -13.51870059967041
      ],
      [
        "@109.1",
        -13.519585609436035
      ],
      [
        "6.16",
        -13.519768714904785
      ],
      [
        "040",
        -13.519814491271973
      ],
      [
        "478",
        -13.519904136657715
      ],
      [
        "668",
        -13.52065658569336
      ],
      [
        "@37.",
        -13.521142959594727
      ],
      [
        "@80.",
        -13.523015022277832
      ],
      [
        "@49.",
        -13.523893356323242
      ],
      [
        "984",
        -13.524835586547852
      ],
      [
        "510",
        -13.525712966918945
      ],
      [
        "fcf",
        -13.527767181396484
      ],
      [
        "@94.",
        -13.52789306640625
      ],
      [
        "662",
        -13.529207229614258
      ],
      [
        "@129.1",
        -13.529787063598633
      ],
      [
        "@79.",
        -13.530462265014648
      ],
      [
        "450",
        -13.531201362609863
      ],
      [
        "077",
        -13.531209945678711
      ],
      [
        "916",
        -13.532468795776367
      ],
      [
        "98-",
        -13.535723686218262
      ],
      [
        "088",
        -13.535958290100098
      ],
      [
        ".205",
        -13.536383628845215
      ],
      [
        "@156.",
        -13.536696434020996
      ],
      [
        "993",
        -13.537104606628418
      ],
      [
        "@16.",
        -13.53866958618164
      ],
      [
        "740",
        -13.539263725280762
      ],
      [
        "1.16",
        -13.539610862731934
      ],
      [
        "4:~/",
        -13.53982925415039
      ],
      [
        "daa",
        -13.540313720703125
      ],
      [
        "805",
        -13.540542602539062
      ],
      [
        "0.1",
        -13.540922164916992
      ],
      [
        "985",
        -13.5409574508667
      ],
      [
        "@41.",
        -13.540958404541016
      ],
      [
        "@180.",
        -13.541624069213867
      ],
      [
        "067",
        -13.544816017150879
      ],
      [
        "774",
        -13.545378684997559
      ],
      [
        "53-",
        -13.5460786819458
      ],
      [
        "5-6",
        -13.546388626098633
      ],
      [
        "73-4",
        -13.546724319458008
      ],
      [
        "878",
        -13.548184394836426
      ],
      [
        "@72.",
        -13.549661636352539
      ],
      [
        "841",
        -13.550222396850586
      ],
      [
        "598",
        -13.550332069396973
      ],
      [
        "583",
        -13.550790786743164
      ],
      [
        "809",
        -13.551036834716797
      ],
      [
        "@55.",
        -13.55160140991211
      ],
      [
        "285",
        -13.552461624145508
      ],
      [
        "@191.",
        -13.553019523620605
      ],
      [
        "910",
        -13.554327964782715
      ],
      [
        "99-4",
        -13.554720878601074
      ],
      [
        "8-2",
        -13.5625
      ],
      [
        "687",
        -13.563352584838867
      ],
      [
        "396",
        -13.56376838684082
      ],
      [
        "174",
        -13.564781188964844
      ],
      [
        "286",
        -13.564939498901367
      ],
      [
        "166",
        -13.565279960632324
      ],
      [
        "72-",
        -13.565667152404785
      ],
      [
        "@82.",
        -13.566182136535645
      ],
      [
        "644",
        -13.566852569580078
      ],
      [
        "854",
        -13.567734718322754
      ],
      [
        "4-0",
        -13.56788158416748
      ],
      [
        "@109.",
        -13.568132400512695
      ],
      [
        "395",
        -13.56983757019043
      ],
      [
        "dac",
        -13.570691108703613
      ],
      [
        "826",
        -13.571063041687012
      ],
      [
        "@167.1",
        -13.57169246673584
      ],
      [
        "928",
        -13.572036743164062
      ],
      [
        "@179.",
        -13.572565078735352
      ],
      [
        "137",
        -13.573025703430176
      ],
      [
        "@50.",
        -13.574134826660156
      ],
      [
        "133",
        -13.574487686157227
      ],
      [
        "1-7",
        -13.574739456176758
      ],
      [
        "626",
        -13.575084686279297
      ],
      [
        "784",
        -13.575325965881348
      ],
      [
        "@139.",
        -13.577679634094238
      ],
      [
        "815",
        -13.57803726196289
      ],
      [
        "dca",
        -13.578343391418457
      ],
      [
        "070",
        -13.579500198364258
      ],
      [
        "700",
        -13.579879760742188
      ],
      [
        "963",
        -13.580812454223633
      ],
      [
        "518",
        -13.581015586853027
      ],
      [
        "814",
        -13.581259727478027
      ],
      [
        "065",
        -13.58154010772705
      ],
      [
        "2:/",
        -13.581830978393555
      ],
      [
        "199",
        -13.58183479309082
      ],
      [
        "867",
        -13.582341194152832
      ],
      [
        "84-4",
        -13.583181381225586
      ],
      [
        "@25.",
        -13.583481788635254
      ],
      [
        "667",
        -13.58475112915039
      ],
      [
        "41.1",
        -13.584882736206055
      ],
      [
        ".102",
        -13.58574104309082
      ],
      [
        "122",
        -13.585768699645996
      ],
      [
        "83-",
        -13.585846900939941
      ],
      [
        "272",
        -13.586854934692383
      ],
      [
        "ebc",
        -13.588293075561523
      ],
      [
        "219",
        -13.588315963745117
      ],
      [
        "453",
        -13.588774681091309
      ],
      [
        "656",
        -13.589896202087402
      ],
      [
        "671",
        -13.590591430664062
      ],
      [
        "9-2",
        -13.59127426147461
      ],
      [
        "6-2",
        -13.592824935913086
      ],
      [
        ".197",
        -13.593238830566406
      ],
      [
        "57.1",
        -13.593276977539062
      ],
      [
        "564",
        -13.593700408935547
      ],
      [
        "651",
        -13.594143867492676
      ],
      [
        "5-2",
        -13.594240188598633
      ],
      [
        "085",
        -13.59550952911377
      ],
      [
        "119",
        -13.596062660217285
      ],
      [
        "914",
        -13.596453666687012
      ],
      [
        "976",
        -13.596672058105469
      ],
      [
        "can",
        -13.597480773925781
      ],
      [
        "@175.",
        -13.600582122802734
      ],
      [
        "440",
        -13.600863456726074
      ],
      [
        "857",
        -13.6009521484375
      ],
      [
        "@103.2",
        -13.601478576660156
      ],
      [
        "@19.",
        -13.601515769958496
      ],
      [
        "680",
        -13.601690292358398
      ],
      [
        "719",
        -13.601747512817383
      ],
      [
        "364",
        -13.601819038391113
      ],
      [
        "-03",
        -13.602294921875
      ],
      [
        "5:~/",
        -13.603850364685059
      ],
      [
        "38.1",
        -13.604001998901367
      ],
      [
        "6.24",
        -13.604657173156738
      ],
      [
        "108",
        -13.607035636901855
      ],
      [
        "@82.1",
        -13.607048034667969
      ],
      [
        "@131.1",
        -13.607490539550781
      ],
      [
        "7-3",
        -13.607829093933105
      ],
      [
        "69-",
        -13.608729362487793
      ],
      [
        "041",
        -13.608952522277832
      ],
      [
        "980",
        -13.609415054321289
      ],
      [
        "751",
        -13.609596252441406
      ],
      [
        "@76.",
        -13.609786033630371
      ],
      [
        "149",
        -13.61018180847168
      ],
      [
        "927",
        -13.61056137084961
      ],
      [
        "0:~/",
        -13.610636711120605
      ],
      [
        "488",
        -13.610901832580566
      ],
      [
        "@37.1",
        -13.610939025878906
      ],
      [
        "925",
        -13.611298561096191
      ],
      [
        "fac",
        -13.611652374267578
      ],
      [
        "@20.1",
        -13.611672401428223
      ],
      [
        "147",
        -13.612515449523926
      ],
      [
        "891",
        -13.612796783447266
      ],
      [
        "81-",
        -13.613176345825195
      ],
      [
        "972",
        -13.613897323608398
      ],
      [
        "459",
        -13.614631652832031
      ],
      [
        "97-",
        -13.615644454956055
      ],
      [
        ".206",
        -13.616565704345703
      ],
      [
        "010",
        -13.617408752441406
      ],
      [
        "3.2",
        -13.617692947387695
      ],
      [
        "770",
        -13.618491172790527
      ],
      [
        "392",
        -13.618644714355469
      ],
      [
        "165",
        -13.618919372558594
      ],
      [
        "@68.",
        -13.621548652648926
      ],
      [
        "035",
        -13.6229248046875
      ],
      [
        "241",
        -13.623177528381348
      ],
      [
        "@138.1",
        -13.623594284057617
      ],
      [
        "66.1",
        -13.623641967773438
      ],
      [
        "054",
        -13.623982429504395
      ],
      [
        "4.16",
        -13.625224113464355
      ],
      [
        "@185.1",
        -13.625868797302246
      ],
      [
        "1-2",
        -13.627130508422852
      ],
      [
        "078",
        -13.627408981323242
      ],
      [
        "102",
        -13.62908935546875
      ],
      [
        "0.22",
        -13.629745483398438
      ],
      [
        ".147",
        -13.629901885986328
      ],
      [
        "198",
        -13.630989074707031
      ],
      [
        "fab",
        -13.631941795349121
      ],
      [
        "977",
        -13.632819175720215
      ],
      [
        "7-41",
        -13.633400917053223
      ],
      [
        "5.1",
        -13.633606910705566
      ],
      [
        "277",
        -13.63561725616455
      ],
      [
        "dfa",
        -13.63769245147705
      ],
      [
        "7-0",
        -13.638213157653809
      ],
      [
        "@94.1",
        -13.638240814208984
      ],
      [
        "@30.1",
        -13.63856029510498
      ],
      [
        "garcia",
        -13.639569282531738
      ],
      [
        "559",
        -13.64097785949707
      ],
      [
        "576",
        -13.641599655151367
      ],
      [
        "0.9",
        -13.64169979095459
      ],
      [
        "226",
        -13.642854690551758
      ],
      [
        "@171.1",
        -13.643070220947266
      ],
      [
        "4.23",
        -13.643348693847656
      ],
      [
        "49-4",
        -13.643505096435547
      ],
      [
        "584",
        -13.644246101379395
      ],
      [
        "908",
        -13.644702911376953
      ],
      [
        ".116",
        -13.645760536193848
      ],
      [
        "8-6",
        -13.646164894104004
      ],
      [
        "oro",
        -13.646354675292969
      ],
      [
        "3-44",
        -13.647948265075684
      ],
      [
        "efd",
        -13.647995948791504
      ],
      [
        "3-7",
        -13.648069381713867
      ],
      [
        "521",
        -13.64864444732666
      ],
      [
        "589",
        -13.649894714355469
      ],
      [
        "80-4",
        -13.650160789489746
      ],
      [
        "63-",
        -13.650678634643555
      ],
      [
        "725",
        -13.650678634643555
      ],
      [
        "292",
        -13.65111255645752
      ],
      [
        "171",
        -13.653074264526367
      ],
      [
        "213",
        -13.653373718261719
      ],
      [
        "096",
        -13.653903007507324
      ],
      [
        "@48.",
        -13.654159545898438
      ],
      [
        "@44.",
        -13.654415130615234
      ],
      [
        "4-48",
        -13.654435157775879
      ],
      [
        "894",
        -13.654900550842285
      ],
      [
        "037",
        -13.655773162841797
      ],
      [
        "225",
        -13.655807495117188
      ],
      [
        "7.4",
        -13.655985832214355
      ],
      [
        "716",
        -13.656161308288574
      ],
      [
        "@165.",
        -13.656388282775879
      ],
      [
        "422",
        -13.65660572052002
      ],
      [
        "430",
        -13.65673828125
      ],
      [
        "-445",
        -13.657207489013672
      ],
      [
        "@161.1",
        -13.658888816833496
      ],
      [
        "689",
        -13.65941047668457
      ],
      [
        ".177",
        -13.660457611083984
      ],
      [
        "59-4",
        -13.662288665771484
      ],
      [
        "982",
        -13.663684844970703
      ],
      [
        "516",
        -13.663820266723633
      ],
      [
        "9-40",
        -13.664468765258789
      ],
      [
        "@186.1",
        -13.664669036865234
      ],
      [
        "842",
        -13.664758682250977
      ],
      [
        "406",
        -13.665263175964355
      ],
      [
        "403",
        -13.665481567382812
      ],
      [
        "713",
        -13.666006088256836
      ],
      [
        "540",
        -13.666149139404297
      ],
      [
        "494",
        -13.667108535766602
      ],
      [
        "641",
        -13.667815208435059
      ],
      [
        "248",
        -13.670151710510254
      ],
      [
        ".159",
        -13.670574188232422
      ],
      [
        "706",
        -13.671256065368652
      ],
      [
        ".152",
        -13.672751426696777
      ],
      [
        "049",
        -13.672751426696777
      ],
      [
        "566",
        -13.67284870147705
      ],
      [
        "48.2",
        -13.673229217529297
      ],
      [
        "767",
        -13.673511505126953
      ],
      [
        "031",
        -13.673733711242676
      ],
      [
        "7.7",
        -13.673924446105957
      ],
      [
        "cce",
        -13.674351692199707
      ],
      [
        "0-6",
        -13.674365997314453
      ],
      [
        "832",
        -13.6760835647583
      ],
      [
        "8-1",
        -13.67626953125
      ],
      [
        "089",
        -13.676493644714355
      ],
      [
        "776",
        -13.676539421081543
      ],
      [
        "5-7",
        -13.676651000976562
      ],
      [
        "47-4",
        -13.677788734436035
      ],
      [
        "@35.",
        -13.678743362426758
      ],
      [
        "8-40",
        -13.679121971130371
      ],
      [
        "414",
        -13.679633140563965
      ],
      [
        "380",
        -13.680221557617188
      ],
      [
        "8.8",
        -13.680240631103516
      ],
      [
        "237.1",
        -13.68062973022461
      ],
      [
        "@183.",
        -13.681011199951172
      ],
      [
        "569",
        -13.681435585021973
      ],
      [
        "@112.1",
        -13.682008743286133
      ],
      [
        "405",
        -13.683505058288574
      ],
      [
        "780",
        -13.684541702270508
      ],
      [
        ".142",
        -13.684609413146973
      ],
      [
        "897",
        -13.686053276062012
      ],
      [
        "060",
        -13.686057090759277
      ],
      [
        "794",
        -13.686179161071777
      ],
      [
        "548",
        -13.686254501342773
      ],
      [
        "78-",
        -13.687230110168457
      ],
      [
        "feb",
        -13.68784236907959
      ],
      [
        "5-1",
        -13.688302993774414
      ],
      [
        "5-47",
        -13.688835144042969
      ],
      [
        "855",
        -13.688888549804688
      ],
      [
        "839",
        -13.689149856567383
      ],
      [
        "2.22",
        -13.689695358276367
      ],
      [
        "7-45",
        -13.68982982635498
      ],
      [
        "@69.1",
        -13.690309524536133
      ],
      [
        "ffa",
        -13.69056224822998
      ],
      [
        "266",
        -13.692079544067383
      ],
      [
        "066",
        -13.692289352416992
      ],
      [
        "045",
        -13.693514823913574
      ],
      [
        "907",
        -13.694008827209473
      ],
      [
        "073",
        -13.694799423217773
      ],
      [
        "673",
        -13.696111679077148
      ],
      [
        "838",
        -13.696124076843262
      ],
      [
        "42.2",
        -13.696186065673828
      ],
      [
        "009",
        -13.697855949401855
      ],
      [
        "71-4",
        -13.697898864746094
      ],
      [
        "85-4",
        -13.698676109313965
      ],
      [
        "@27.",
        -13.69904613494873
      ],
      [
        "772",
        -13.70030689239502
      ],
      [
        "@92.",
        -13.700557708740234
      ],
      [
        "61-4",
        -13.700592994689941
      ],
      [
        "fbd",
        -13.700689315795898
      ],
      [
        "416",
        -13.701286315917969
      ],
      [
        "@154.1",
        -13.701292037963867
      ],
      [
        "299",
        -13.703380584716797
      ],
      [
        "659",
        -13.70365047454834
      ],
      [
        "460",
        -13.703968048095703
      ],
      [
        "426",
        -13.704910278320312
      ],
      [
        "cbd",
        -13.705052375793457
      ],
      [
        "@158.",
        -13.705099105834961
      ],
      [
        "52-",
        -13.705849647521973
      ],
      [
        "@76.1",
        -13.707324981689453
      ],
      [
        "@190.1",
        -13.707478523254395
      ],
      [
        "888",
        -13.707742691040039
      ],
      [
        "051",
        -13.7079439163208
      ],
      [
        "@12.",
        -13.70855712890625
      ],
      [
        "@183.1",
        -13.709258079528809
      ],
      [
        "83-4",
        -13.709378242492676
      ],
      [
        "295",
        -13.709479331970215
      ],
      [
        "1-1",
        -13.710197448730469
      ],
      [
        "655",
        -13.710681915283203
      ],
      [
        "283",
        -13.710712432861328
      ],
      [
        "284",
        -13.710896492004395
      ],
      [
        "66-4",
        -13.711255073547363
      ],
      [
        "42-4",
        -13.711450576782227
      ],
      [
        "2-3",
        -13.712862968444824
      ],
      [
        "528",
        -13.714168548583984
      ],
      [
        "933",
        -13.71554946899414
      ],
      [
        "fae",
        -13.715575218200684
      ],
      [
        "6-45",
        -13.71920108795166
      ],
      [
        "@8",
        -13.720383644104004
      ],
      [
        "720",
        -13.721628189086914
      ],
      [
        "ffb",
        -13.723743438720703
      ],
      [
        "946",
        -13.724080085754395
      ],
      [
        "889",
        -13.72486686706543
      ],
      [
        "@111.",
        -13.725240707397461
      ],
      [
        "463",
        -13.726210594177246
      ],
      [
        "637",
        -13.726266860961914
      ],
      [
        "@91.1",
        -13.72649097442627
      ],
      [
        "665",
        -13.727041244506836
      ],
      [
        "3-43",
        -13.727555274963379
      ],
      [
        "323",
        -13.728555679321289
      ],
      [
        "1-42",
        -13.728556632995605
      ],
      [
        "781",
        -13.73074722290039
      ],
      [
        "476",
        -13.732053756713867
      ],
      [
        "-460",
        -13.73299503326416
      ],
      [
        "387",
        -13.733538627624512
      ],
      [
        "574",
        -13.733966827392578
      ],
      [
        "97-4",
        -13.734050750732422
      ],
      [
        "230",
        -13.734522819519043
      ],
      [
        "81-4",
        -13.735128402709961
      ],
      [
        "987",
        -13.7352876663208
      ],
      [
        "6-3",
        -13.735410690307617
      ],
      [
        "3-3",
        -13.73542308807373
      ],
      [
        "98.1",
        -13.73550033569336
      ],
      [
        "component",
        -13.736289024353027
      ],
      [
        "851",
        -13.736358642578125
      ],
      [
        "@122.1",
        -13.736586570739746
      ],
      [
        "5-3",
        -13.736738204956055
      ],
      [
        "746",
        -13.736838340759277
      ],
      [
        "859",
        -13.737163543701172
      ],
      [
        "444",
        -13.7380952835083
      ],
      [
        "8.5",
        -13.738792419433594
      ],
      [
        "9-48",
        -13.738805770874023
      ],
      [
        "947",
        -13.738848686218262
      ],
      [
        "-53",
        -13.739130973815918
      ],
      [
        "940",
        -13.739344596862793
      ],
      [
        "360",
        -13.73938274383545
      ],
      [
        "255",
        -13.73960018157959
      ],
      [
        "472",
        -13.739643096923828
      ],
      [
        "758",
        -13.739950180053711
      ],
      [
        "@95.1",
        -13.740696907043457
      ],
      [
        "383",
        -13.74071216583252
      ],
      [
        "53-4",
        -13.741024017333984
      ],
      [
        "7-1",
        -13.741124153137207
      ],
      [
        "12-4",
        -13.741937637329102
      ],
      [
        "2-6",
        -13.742647171020508
      ],
      [
        "@125.1",
        -13.742696762084961
      ],
      [
        "23-4",
        -13.743328094482422
      ],
      [
        "817",
        -13.744032859802246
      ],
      [
        "342",
        -13.74444580078125
      ],
      [
        "233",
        -13.745316505432129
      ],
      [
        "▁496",
        -13.745431900024414
      ],
      [
        "71-",
        -13.746011734008789
      ],
      [
        "423",
        -13.746620178222656
      ],
      [
        "5.22",
        -13.746713638305664
      ],
      [
        "@191.1",
        -13.746769905090332
      ],
      [
        "4-2",
        -13.747350692749023
      ],
      [
        "@150.1",
        -13.747681617736816
      ],
      [
        "@151.1",
        -13.749411582946777
      ],
      [
        "988",
        -13.750533103942871
      ],
      [
        "1-40",
        -13.750701904296875
[...]
